{
  "0": "\u0000",
  "1": "\u0001",
  "2": "\u0002",
  "3": "\u0003",
  "4": "\u0004",
  "5": "\u0005",
  "6": "\u0006",
  "7": "\u0007",
  "8": "\b",
  "9": "\t",
  "10": "\n",
  "11": "\u000b",
  "12": "\f",
  "13": "\r",
  "14": "\u000e",
  "15": "\u000f",
  "16": "\u0010",
  "17": "\u0011",
  "18": "\u0012",
  "19": "\u0013",
  "20": "\u0014",
  "21": "\u0015",
  "22": "\u0016",
  "23": "\u0017",
  "24": "\u0018",
  "25": "\u0019",
  "26": "\u001a",
  "27": "\u001b",
  "28": "\u001c",
  "29": "\u001d",
  "30": "\u001e",
  "31": "\u001f",
  "32": " ",
  "33": "!",
  "34": "\"",
  "35": "#",
  "36": "$",
  "37": "%",
  "38": "&",
  "39": "'",
  "40": "(",
  "41": ")",
  "42": "*",
  "43": "+",
  "44": ",",
  "45": "-",
  "46": ".",
  "47": "/",
  "48": "0",
  "49": "1",
  "50": "2",
  "51": "3",
  "52": "4",
  "53": "5",
  "54": "6",
  "55": "7",
  "56": "8",
  "57": "9",
  "58": ":",
  "59": ";",
  "60": "<",
  "61": "=",
  "62": ">",
  "63": "?",
  "64": "@",
  "65": "A",
  "66": "B",
  "67": "C",
  "68": "D",
  "69": "E",
  "70": "F",
  "71": "G",
  "72": "H",
  "73": "I",
  "74": "J",
  "75": "K",
  "76": "L",
  "77": "M",
  "78": "N",
  "79": "O",
  "80": "P",
  "81": "Q",
  "82": "R",
  "83": "S",
  "84": "T",
  "85": "U",
  "86": "V",
  "87": "W",
  "88": "X",
  "89": "Y",
  "90": "Z",
  "91": "[",
  "92": "\\",
  "93": "]",
  "94": "^",
  "95": "_",
  "96": "`",
  "97": "a",
  "98": "b",
  "99": "c",
  "100": "d",
  "101": "e",
  "102": "f",
  "103": "g",
  "104": "h",
  "105": "i",
  "106": "j",
  "107": "k",
  "108": "l",
  "109": "m",
  "110": "n",
  "111": "o",
  "112": "p",
  "113": "q",
  "114": "r",
  "115": "s",
  "116": "t",
  "117": "u",
  "118": "v",
  "119": "w",
  "120": "x",
  "121": "y",
  "122": "z",
  "123": "{",
  "124": "|",
  "125": "}",
  "126": "~",
  "127": "",
  "128": "",
  "129": "",
  "130": "",
  "131": "",
  "132": "",
  "133": "",
  "134": "",
  "135": "",
  "136": "",
  "137": "",
  "138": "",
  "139": "",
  "140": "",
  "141": "",
  "142": "",
  "143": "",
  "144": "",
  "145": "",
  "146": "",
  "147": "",
  "148": "",
  "149": "",
  "150": "",
  "151": "",
  "152": "",
  "153": "",
  "154": "",
  "155": "",
  "156": "",
  "157": "",
  "158": "",
  "159": "",
  "160": " ",
  "161": "¡",
  "162": "¢",
  "163": "£",
  "164": "¤",
  "165": "¥",
  "166": "¦",
  "167": "§",
  "168": "¨",
  "169": "©",
  "170": "ª",
  "171": "«",
  "172": "¬",
  "173": "­",
  "174": "®",
  "175": "¯",
  "176": "°",
  "177": "±",
  "178": "²",
  "179": "³",
  "180": "´",
  "181": "µ",
  "182": "¶",
  "183": "·",
  "184": "¸",
  "185": "¹",
  "186": "º",
  "187": "»",
  "188": "¼",
  "189": "½",
  "190": "¾",
  "191": "¿",
  "192": "À",
  "193": "Á",
  "194": "Â",
  "195": "Ã",
  "196": "Ä",
  "197": "Å",
  "198": "Æ",
  "199": "Ç",
  "200": "È",
  "201": "É",
  "202": "Ê",
  "203": "Ë",
  "204": "Ì",
  "205": "Í",
  "206": "Î",
  "207": "Ï",
  "208": "Ð",
  "209": "Ñ",
  "210": "Ò",
  "211": "Ó",
  "212": "Ô",
  "213": "Õ",
  "214": "Ö",
  "215": "×",
  "216": "Ø",
  "217": "Ù",
  "218": "Ú",
  "219": "Û",
  "220": "Ü",
  "221": "Ý",
  "222": "Þ",
  "223": "ß",
  "224": "à",
  "225": "á",
  "226": "â",
  "227": "ã",
  "228": "ä",
  "229": "å",
  "230": "æ",
  "231": "ç",
  "232": "è",
  "233": "é",
  "234": "ê",
  "235": "ë",
  "236": "ì",
  "237": "í",
  "238": "î",
  "239": "ï",
  "240": "ð",
  "241": "ñ",
  "242": "ò",
  "243": "ó",
  "244": "ô",
  "245": "õ",
  "246": "ö",
  "247": "÷",
  "248": "ø",
  "249": "ù",
  "250": "ú",
  "251": "û",
  "252": "ü",
  "253": "ý",
  "254": "þ",
  "255": "ÿ",
  "256": "Ġ",
  "257": "Œ",
  "258": "—",
  "259": "‘",
  "260": "’",
  "261": "“",
  "262": "”",
  "263": "•",
  "264": "™",
  "265": "<|start|>",
  "266": "<|endoftext|>",
  "267": "eĠ",
  "268": "th",
  "269": "sĠ",
  "270": "in",
  "271": "tĠ",
  "272": "Ġth",
  "273": "er",
  "274": "an",
  "275": "on",
  "276": "dĠ",
  "277": "en",
  "278": ",Ġ",
  "279": "of",
  "280": "or",
  "281": "ti",
  "282": "yĠ",
  "283": "al",
  "284": "re",
  "285": "ĠtheĠ",
  "286": "to",
  "287": "isĠ",
  "288": "ar",
  "289": "ou",
  "290": "ch",
  "291": "ing",
  "292": "ofĠ",
  "293": ".Ġ",
  "294": "es",
  "295": "toĠ",
  "296": "tion",
  "297": "it",
  "298": "andĠ",
  "299": "is",
  "300": "wh",
  "301": "at",
  "302": "el",
  "303": "atĠ",
  "304": "edĠ",
  "305": "il",
  "306": "aĠ",
  "307": "ec",
  "308": "om",
  "309": "ingĠ",
  "310": "theĠ",
  "311": "ed",
  "312": "inĠ",
  "313": "no",
  "314": "for",
  "315": "asĠ",
  "316": "erĠ",
  "317": "e\n",
  "318": "st",
  "319": "ac",
  "320": "esĠ",
  "321": "alĠ",
  "322": "ĠĠ",
  "323": "ation",
  "324": "as",
  "325": "chĠ",
  "326": "con",
  "327": "ic",
  "328": "em",
  "329": "ro",
  "330": "itĠ",
  "331": "su",
  "332": "lyĠ",
  "333": "whi",
  "334": "lĠ",
  "335": "ir",
  "336": "\n\n",
  "337": "im",
  "338": "enĠ",
  "339": "veĠ",
  "340": "heĠ",
  "341": "us",
  "342": "anĠ",
  "343": "ev",
  "344": "id",
  "345": "ent",
  "346": "beĠ",
  "347": "oĠ",
  "348": "ith",
  "349": "ol",
  "350": "ex",
  "351": "gh",
  "352": "and",
  "353": "if",
  "354": "os",
  "355": "ul",
  "356": "be",
  "357": "pl",
  "358": "ab",
  "359": "ur",
  "360": "whichĠ",
  "361": "ofĠtheĠ",
  "362": "un",
  "363": "with",
  "364": "ma",
  "365": "notĠ",
  "366": "tr",
  "367": "orĠ",
  "368": "ha",
  "369": "e,Ġ",
  "370": "ow",
  "371": "areĠ",
  "372": "ĠthatĠ",
  "373": "uc",
  "374": ".ĠT",
  "375": "enc",
  "376": "s,Ġ",
  "377": "ea",
  "378": "per",
  "379": "hisĠ",
  "380": "sp",
  "381": "ter",
  "382": "our",
  "383": "ationĠ",
  "384": "iv",
  "385": "utĠ",
  "386": "entĠ",
  "387": "sel",
  "388": "onĠ",
  "389": "si",
  "390": "thatĠ",
  "391": "eĠofĠ",
  "392": "pro",
  "393": "am",
  "394": "ag",
  "395": ".\n\n",
  "396": "oul",
  "397": "qu",
  "398": "pre",
  "399": ".ĠI",
  "400": "ad",
  "401": "chil",
  "402": "wor",
  "403": "fr",
  "404": "me",
  "405": "sh",
  "406": "ep",
  "407": ",\n",
  "408": "tionĠ",
  "409": "ci",
  "410": "ereĠ",
  "411": "oth",
  "412": "weĠ",
  "413": "ear",
  "414": "com",
  "415": "y\n",
  "416": "ta",
  "417": ";Ġ",
  "418": "y,Ġ",
  "419": "ĠĠĠĠ",
  "420": "leĠ",
  "421": "tic",
  "422": "Ġthe\n",
  "423": "nĠ",
  "424": "forĠ",
  "425": "ough",
  "426": "byĠ",
  "427": "ect",
  "428": "from",
  "429": "oo",
  "430": "ouldĠ",
  "431": "ut",
  "432": "Ġthe",
  "433": "ind",
  "434": "inĠtheĠ",
  "435": "itsĠ",
  "436": "ap",
  "437": "up",
  "438": "self",
  "439": "all",
  "440": "--",
  "441": "op",
  "442": "pos",
  "443": "s\n",
  "444": "ef",
  "445": "li",
  "446": "se",
  "447": "haveĠ",
  "448": "wil",
  "449": "par",
  "450": "ver",
  "451": "withĠ",
  "452": "dis",
  "453": "of\n",
  "454": "sĠofĠ",
  "455": "ityĠ",
  "456": "oun",
  "457": ",ĠandĠ",
  "458": "educ",
  "459": "kĠ",
  "460": "toĠtheĠ",
  "461": "butĠ",
  "462": "str",
  "463": "hasĠ",
  "464": "mor",
  "465": "form",
  "466": "ess",
  "467": "child",
  "468": "cl",
  "469": ",ĠtheĠ",
  "470": "ĠthisĠ",
  "471": "is\n",
  "472": "pr",
  "473": ".ĠTheĠ",
  "474": "essĠ",
  "475": "um",
  "476": "now",
  "477": "igh",
  "478": "the",
  "479": "outĠ",
  "480": "oneĠ",
  "481": "him",
  "482": "ay",
  "483": "sch",
  "484": "willĠ",
  "485": "ourĠ",
  "486": "lif",
  "487": "ob",
  "488": "allĠ",
  "489": "od",
  "490": "ustĠ",
  "491": "cons",
  "492": "irĠ",
  "493": "act",
  "494": "and\n",
  "495": "soĠ",
  "496": "ectĠ",
  "497": "int",
  "498": "bec",
  "499": "itĠisĠ",
  "500": "anc",
  "501": "end",
  "502": ".ĠA",
  "503": "whatĠ",
  "504": "ud",
  "505": "tiv",
  "506": "ever",
  "507": "inc",
  "508": "ure",
  "509": "pres",
  "510": "nat",
  "511": "each",
  "512": "anyĠ",
  "513": "enceĠ",
  "514": "bl",
  "515": "IĠ",
  "516": "ist",
  "517": "mayĠ",
  "518": "allyĠ",
  "519": "cep",
  "520": "to\n",
  "521": "do",
  "522": "som",
  "523": "toĠbeĠ",
  "524": "fromĠ",
  "525": "teach",
  "526": "ne",
  "527": "di",
  "528": "which",
  "529": "t\n",
  "530": "mean",
  "531": "know",
  "532": "ousĠ",
  "533": "rec",
  "534": "gr",
  "535": "ateĠ",
  "536": "tiveĠ",
  "537": ":Ġ",
  "538": "so",
  "539": "otherĠ",
  "540": "der",
  "541": "emĠ",
  "542": "mustĠ",
  "543": "row",
  "544": "keĠ",
  "545": "ish",
  "546": "ph",
  "547": "sub",
  "548": "moreĠ",
  "549": "ureĠ",
  "550": "ain",
  "551": "ableĠ",
  "552": ".\n",
  "553": "elyĠ",
  "554": "\"Ġ",
  "555": "tw",
  "556": "shouldĠ",
  "557": "ot",
  "558": "tim",
  "559": "noĠ",
  "560": "es,Ġ",
  "561": "de",
  "562": "aw",
  "563": "arĠ",
  "564": "ard",
  "565": "est",
  "566": "thĠ",
  "567": "eas",
  "568": "ell",
  "569": ".ĠW",
  "570": "fer",
  "571": ".ĠB",
  "572": ".ĠTh",
  "573": "wasĠ",
  "574": "fic",
  "575": "ong",
  "576": "icalĠ",
  "577": "yĠtheĠ",
  "578": "childr",
  "579": "spir",
  "580": "ayĠ",
  "581": "canĠ",
  "582": "other",
  "583": "whoĠ",
  "584": "ment",
  "585": "og",
  "586": "seĠ",
  "587": "ool",
  "588": "et",
  "589": "real",
  "590": "useĠ",
  "591": "jectĠ",
  "592": "ber",
  "593": "duc",
  "594": "a\n",
  "595": "in\n",
  "596": "edĠtoĠ",
  "597": "ĠtheirĠ",
  "598": "grow",
  "599": "ofĠth",
  "600": "sĠandĠ",
  "601": "ink",
  "602": "ualĠ",
  "603": "ous",
  "604": "ant",
  "605": "ere",
  "606": "fl",
  "607": "andĠtheĠ",
  "608": "cr",
  "609": "aryĠ",
  "610": "mat",
  "611": "al\n",
  "612": "ĠtheyĠ",
  "613": "beenĠ",
  "614": "gre",
  "615": "ed,Ġ",
  "616": "ing,Ġ",
  "617": "ser",
  "618": "stĠ",
  "619": "sy",
  "620": "ifĠ",
  "621": "TheĠ",
  "622": "_Ġ",
  "623": "foreĠ",
  "624": "dif",
  "625": "estĠ",
  "626": "childĠ",
  "627": "por",
  "628": "ing\n",
  "629": "man",
  "630": "doĠ",
  "631": "atedĠ",
  "632": "everĠ",
  "633": "cont",
  "634": "ang",
  "635": ",Ġth",
  "636": "ed\n",
  "637": "ject",
  "638": "wouldĠ",
  "639": "enti",
  "640": "fe",
  "641": "sen",
  "642": "are",
  "643": "pers",
  "644": "gi",
  "645": "school",
  "646": "eseĠ",
  "647": "sa",
  "648": "onlyĠ",
  "649": "usĠ",
  "650": "fac",
  "651": "you",
  "652": ")Ġ",
  "653": "ownĠ",
  "654": "ity",
  "655": "possi",
  "656": "selfĠ",
  "657": "oughtĠ",
  "658": "inter",
  "659": "vi",
  "660": "bleĠ",
  "661": "at\n",
  "662": "fir",
  "663": "isĠtheĠ",
  "664": "eth",
  "665": "terĠ",
  "666": "'sĠ",
  "667": "education",
  "668": "ener",
  "669": "ide",
  "670": "the\n",
  "671": "ostĠ",
  "672": "oseĠ",
  "673": "cer",
  "674": ".ĠButĠ",
  "675": "theyĠ",
  "676": "bel",
  "677": "tru",
  "678": "dev",
  "679": "des",
  "680": "oc",
  "681": "le",
  "682": "ingsĠ",
  "683": "educationĠ",
  "684": ".ĠItĠ",
  "685": "ightĠ",
  "686": "antĠ",
  "687": "po",
  "688": "onĠtheĠ",
  "689": "cas",
  "690": "becom",
  "691": "ful",
  "692": "spirit",
  "693": "forĠtheĠ",
  "694": "ĠofĠ",
  "695": "iesĠ",
  "696": "ement",
  "697": "work",
  "698": "fa",
  "699": "inst",
  "700": "tsĠ",
  "701": "veryĠ",
  "702": "ov",
  "703": "pe",
  "704": "led",
  "705": "whenĠ",
  "706": "intoĠ",
  "707": "ig",
  "708": "min",
  "709": "lifeĠ",
  "710": "ĠĠĠĠĠĠĠĠ",
  "711": "suchĠ",
  "712": "ord",
  "713": "byĠtheĠ",
  "714": "under",
  "715": "acc",
  "716": "someĠ",
  "717": "beca",
  "718": "ingĠtheĠ",
  "719": "Pro",
  "720": "read",
  "721": "br",
  "722": "af",
  "723": "tĠofĠ",
  "724": "e:Ġ",
  "725": "eĠtoĠ",
  "726": "uten",
  "727": "iden",
  "728": "t,Ġ",
  "729": "ledg",
  "730": "ity,Ġ",
  "731": "]\n\n",
  "732": "berg",
  "733": "ound",
  "734": ",--",
  "735": "beingĠ",
  "736": "pa",
  "737": "utenberg",
  "738": "thisĠ",
  "739": "youĠ",
  "740": "icĠ",
  "741": "giv",
  "742": "tit",
  "743": "ass",
  "744": "fre",
  "745": "mostĠ",
  "746": "as\n",
  "747": "how",
  "748": "way",
  "749": "ult",
  "750": "knowledg",
  "751": "fĠ",
  "752": "iti",
  "753": "can",
  "754": "natur",
  "755": "ire",
  "756": "oughĠ",
  "757": "withĠtheĠ",
  "758": "hum",
  "759": "himĠ",
  "760": "goo",
  "761": "reas",
  "762": "lessĠ",
  "763": "comm",
  "764": "[S",
  "765": "[Siden",
  "766": "[Sidenot",
  "767": "[Sidenote:Ġ",
  "768": "childrenĠ",
  "769": "sĠtoĠ",
  "770": "ticĠ",
  "771": "hap",
  "772": "mu",
  "773": "becauseĠ",
  "774": "fact",
  "775": "port",
  "776": "over",
  "777": ".ĠH",
  "778": "Gutenberg",
  "779": "consid",
  "780": "andĠth",
  "781": "whichĠisĠ",
  "782": "wĠ",
  "783": "etĠ",
  "784": "elop",
  "785": "ameĠ",
  "786": "mentĠ",
  "787": ".ĠWh",
  "788": "withoutĠ",
  "789": "person",
  "790": "gener",
  "791": "oolĠ",
  "792": ".ĠF",
  "793": "beli",
  "794": "ereĠisĠ",
  "795": "out",
  "796": "dĠofĠ",
  "797": "tionsĠ",
  "798": "develop",
  "799": "worl",
  "800": "ism",
  "801": "selv",
  "802": "wereĠ",
  "803": "iz",
  "804": "gg",
  "805": "tionĠofĠ",
  "806": "fromĠtheĠ",
  "807": "ofĠthe\n",
  "808": "ans",
  "809": "en\n",
  "810": "til",
  "811": "exper",
  "812": "cipl",
  "813": "exam",
  "814": "meth",
  "815": "certa",
  "816": "abl",
  "817": "nec",
  "818": "whol",
  "819": ".ĠS",
  "820": "esĠofĠ",
  "821": "ib",
  "822": "Ġthem",
  "823": "edĠinĠ",
  "824": "def",
  "825": "asĠaĠ",
  "826": "ereforeĠ",
  "827": "fin",
  "828": "schoolĠ",
  "829": "edĠbyĠ",
  "830": "ra",
  "831": "cour",
  "832": "anceĠ",
  "833": "d\n",
  "834": "iseĠ",
  "835": "resp",
  "836": "sci",
  "837": "ys",
  "838": "es\n",
  "839": "sion",
  "840": "consci",
  "841": "workĠ",
  "842": "reg",
  "843": "lear",
  "844": "differ",
  "845": "ten",
  "846": "pup",
  "847": "ongĠ",
  "848": "bo",
  "849": "them",
  "850": "hadĠ",
  "851": "mis",
  "852": "consider",
  "853": "arg",
  "854": "self-",
  "855": "concep",
  "856": "ageĠ",
  "857": "ineĠ",
  "858": ",ĠbutĠ",
  "859": "low",
  "860": "sul",
  "861": ".ĠAn",
  "862": "teacher",
  "863": "doesĠ",
  "864": "rel",
  "865": "manĠ",
  "866": ",ĠthatĠ",
  "867": "pupil",
  "868": "ProjectĠ",
  "869": "ProjectĠGutenberg",
  "870": "everyĠ",
  "871": "activ",
  "872": "isĠnotĠ",
  "873": "serv",
  "874": "cre",
  "875": "instinc",
  "876": "firstĠ",
  "877": "be\n",
  "878": "resul",
  "879": "eri",
  "880": "spec",
  "881": "mak",
  "882": "thingĠ",
  "883": "ce",
  "884": "ationĠofĠ",
  "885": "ill",
  "886": "tak",
  "887": "produc",
  "888": "sol",
  "889": "year",
  "890": "cur",
  "891": "s,ĠandĠ",
  "892": "?Ġ",
  "893": "itt",
  "894": "word",
  "895": "ion",
  "896": "ation,Ġ",
  "897": "evenĠ",
  "898": "cannotĠ",
  "899": "sugg",
  "900": "ook",
  "901": "nessĠ",
  "902": "uponĠ",
  "903": "ivid",
  "904": "twe",
  "905": "struc",
  "906": "eĠtheĠ",
  "907": "e,ĠandĠ",
  "908": "sionĠ",
  "909": "en,Ġ",
  "910": "yĠofĠ",
  "911": "sĠthatĠ",
  "912": "asĠtheĠ",
  "913": "sĠtheĠ",
  "914": "dr",
  "915": "isĠaĠ",
  "916": "direc",
  "917": "theirĠ",
  "918": "pow",
  "919": ";ĠandĠ",
  "920": "iteĠ",
  "921": "Th",
  "922": "betwe",
  "923": "teacherĠ",
  "924": "exist",
  "925": "\ntheĠ",
  "926": "compl",
  "927": "ence",
  "928": "tion,Ġ",
  "929": "intell",
  "930": ".ĠIn",
  "931": ".\n\n[Sidenote:Ġ",
  "932": "life",
  "933": "soci",
  "934": "ual",
  "935": "import",
  "936": "tend",
  "937": ".ĠThisĠ",
  "938": "inĠaĠ",
  "939": "ardĠ",
  "940": "prov",
  "941": "ari",
  "942": "sup",
  "943": "an\n",
  "944": "ques",
  "945": "is,Ġ",
  "946": "aboutĠ",
  "947": "makeĠ",
  "948": "sur",
  "949": "feel",
  "950": "sameĠ",
  "951": "go",
  "952": "ward",
  "953": "mayĠbeĠ",
  "954": "will",
  "955": "intellect",
  "956": "train",
  "957": "subject",
  "958": "gn",
  "959": ".ĠO",
  "960": "eachĠ",
  "961": "ip",
  "962": "lea",
  "963": "ly",
  "964": "rea",
  "965": "cop",
  "966": "or\n",
  "967": "mer",
  "968": "it\n",
  "969": "ilyĠ",
  "970": "und",
  "971": "mind",
  "972": "itself",
  "973": "ingĠofĠ",
  "974": ".ĠInĠ",
  "975": "val",
  "976": "tedĠ",
  "977": "experi",
  "978": "edi",
  "979": "sec",
  "980": "ther",
  "981": "mad",
  "982": "ĠandĠ",
  "983": "ingĠtoĠ",
  "984": "necess",
  "985": "shouldĠbeĠ",
  "986": "enĠtheĠ",
  "987": "ĠthatĠtheĠ",
  "988": "ofĠthisĠ",
  "989": "manyĠ",
  "990": "comp",
  "991": "itselfĠ",
  "992": "top",
  "993": "sĠinĠ",
  "994": "d,Ġ",
  "995": "ulti",
  "996": "sĠareĠ",
  "997": "exp",
  "998": "gl",
  "999": "learn",
  "1000": "iver",
  "1001": "bod",
  "1002": "lat",
  "1003": "high",
  "1004": "ty",
  "1005": "individ",
  "1006": "fi",
  "1007": "wayĠ",
  "1008": "dist",
  "1009": "actĠ",
  "1010": "law",
  "1011": "muchĠ",
  "1012": "Ġthink",
  "1013": "one",
  "1014": "ĠtoĠ",
  "1015": "hasĠbeenĠ",
  "1016": "plac",
  "1017": ".ĠIfĠ",
  "1018": "fol",
  "1019": "prac",
  "1020": "possibleĠ",
  "1021": "humanĠ",
  "1022": "ementĠ",
  "1023": "method",
  "1024": "parent",
  "1025": "dem",
  "1026": "reli",
  "1027": "term",
  "1028": "element",
  "1029": "certainĠ",
  "1030": "cap",
  "1031": "chi",
  "1032": "au",
  "1033": ".ĠIĠ",
  "1034": "_,Ġ",
  "1035": "stand",
  "1036": "goodĠ",
  "1037": "mo",
  "1038": "ulĠ",
  "1039": "syst",
  "1040": "ticalĠ",
  "1041": "idĠ",
  "1042": "sid",
  "1043": "ster",
  "1044": ";\n",
  "1045": "ativeĠ",
  "1046": "liv",
  "1047": "stud",
  "1048": "farĠ",
  "1049": "tern",
  "1050": "probl",
  "1051": "are\n",
  "1052": "pur",
  "1053": "hav",
  "1054": "ueĠ",
  "1055": "heĠisĠ",
  "1056": "observ",
  "1057": "nature",
  "1058": "tis",
  "1059": "hab",
  "1060": "which\n",
  "1061": "ghtĠ",
  "1062": "by\n",
  "1063": "expres",
  "1064": "oundĠ",
  "1065": "mod",
  "1066": "opl",
  "1067": "acqu",
  "1068": "not\n",
  "1069": "her",
  "1070": "twoĠ",
  "1071": "trib",
  "1072": "equ",
  "1073": "phys",
  "1074": "sign",
  "1075": "examin",
  "1076": "ellĠ",
  "1077": "whichĠtheĠ",
  "1078": "char",
  "1079": "nes",
  "1080": "neverĠ",
  "1081": "ityĠofĠ",
  "1082": "esĠtheĠ",
  "1083": "realis",
  "1084": "ly\n",
  "1085": "posi",
  "1086": "own",
  "1087": "beg",
  "1088": "thatĠtheĠ",
  "1089": "tur",
  "1090": "ticul",
  "1091": "ins",
  "1092": "materi",
  "1093": "proc",
  "1094": "arr",
  "1095": "his\n",
  "1096": "dep",
  "1097": "cor",
  "1098": "therĠ",
  "1099": "peopl",
  "1100": ".ĠWeĠ",
  "1101": "he",
  "1102": "ProjectĠGutenberg™",
  "1103": "mustĠbeĠ",
  "1104": "alsoĠ",
  "1105": "ialĠ",
  "1106": "someth",
  "1107": "ĠthemĠ",
  "1108": "diffic",
  "1109": "forc",
  "1110": "it,Ġ",
  "1111": ",\"Ġ",
  "1112": "beforeĠ",
  "1113": "av",
  "1114": "natureĠ",
  "1115": "eff",
  "1116": "reason",
  "1117": "call",
  "1118": "atĠtheĠ",
  "1119": "alway",
  "1120": "res",
  "1121": "ke",
  "1122": "defin",
  "1123": "vari",
  "1124": "omĠ",
  "1125": "tre",
  "1126": "partĠ",
  "1127": "tain",
  "1128": "religi",
  "1129": "couldĠ",
  "1130": "ific",
  "1131": "ĠthanĠ",
  "1132": "ence,Ġ",
  "1133": "ationsĠ",
  "1134": "stat",
  "1135": "st\n",
  "1136": "vol",
  "1137": "sum",
  "1138": "present",
  "1139": "selvesĠ",
  "1140": "particul",
  "1141": "\n\n\n",
  "1142": "ĠtheseĠ",
  "1143": "suc",
  "1144": "whereĠ",
  "1145": "upĠ",
  "1146": "themĠ",
  "1147": "te",
  "1148": "sens",
  "1149": "sim",
  "1150": "condi",
  "1151": "thanĠ",
  "1152": "TH",
  "1153": "follow",
  "1154": "wr",
  "1155": "yĠtoĠ",
  "1156": "takeĠ",
  "1157": "ilos",
  "1158": "ilosop",
  "1159": "newĠ",
  "1160": "doĠnotĠ",
  "1161": "prin",
  "1162": "emp",
  "1163": "edĠandĠ",
  "1164": "Ch",
  "1165": "desir",
  "1166": "respon",
  "1167": ";ĠbutĠ",
  "1168": "isĠtoĠ",
  "1169": "shallĠ",
  "1170": "aim",
  "1171": "givenĠ",
  "1172": "growthĠ",
  "1173": "(_",
  "1174": "ought",
  "1175": "fear",
  "1176": "think",
  "1177": "ionĠ",
  "1178": "myĠ",
  "1179": "plic",
  "1180": "happ",
  "1181": "whatĠisĠ",
  "1182": "Un",
  "1183": "knowledgeĠ",
  "1184": "larg",
  "1185": "lim",
  "1186": "lo",
  "1187": ".ĠAndĠ",
  "1188": ".ĠItĠisĠ",
  "1189": "philosop",
  "1190": "olog",
  "1191": "nor",
  "1192": "al,Ġ",
  "1193": "entlyĠ",
  "1194": "tĠtoĠ",
  "1195": "giveĠ",
  "1196": "coun",
  "1197": "EĠ",
  "1198": "belief",
  "1199": "erĠofĠ",
  "1200": "less",
  "1201": "istor",
  "1202": "naturalĠ",
  "1203": "principl",
  "1204": "enceĠofĠ",
  "1205": "rightĠ",
  "1206": "Wh",
  "1207": "In",
  "1208": "for\n",
  "1209": "vie",
  "1210": "endĠ",
  "1211": "itiesĠ",
  "1212": "say",
  "1213": "timeĠ",
  "1214": "himselfĠ",
  "1215": "conscious",
  "1216": "by",
  "1217": "greatĠ",
  "1218": "vir",
  "1219": "asp",
  "1220": "\nofĠ",
  "1221": "stil",
  "1222": "ingĠandĠ",
  "1223": "wholeĠ",
  "1224": ".ĠHeĠ",
  "1225": "cult",
  "1226": "imag",
  "1227": "main",
  "1228": "disc",
  "1229": "whichĠweĠ",
  "1230": "mindĠ",
  "1231": "moralĠ",
  "1232": "canĠbeĠ",
  "1233": ".ĠForĠ",
  "1234": "intellectualĠ",
  "1235": "hand",
  "1236": "spiritualĠ",
  "1237": "tooĠ",
  "1238": "elli",
  "1239": "ainĠ",
  "1240": "refl",
  "1241": "trans",
  "1242": "org",
  "1243": "again",
  "1244": "infl",
  "1245": "sĠofĠtheĠ",
  "1246": "ableĠtoĠ",
  "1247": "mightĠ",
  "1248": "]Ġ",
  "1249": "ookĠ",
  "1250": "\n\nĠĠ",
  "1251": "willĠbeĠ",
  "1252": "clus",
  "1253": "inform",
  "1254": "intoĠtheĠ",
  "1255": "roughĠ",
  "1256": "ofĠaĠ",
  "1257": "hel",
  "1258": "becomeĠ",
  "1259": "mov",
  "1260": "Utop",
  "1261": "Utopi",
  "1262": "madeĠ",
  "1263": ".ĠAĠ",
  "1264": "inĠthe\n",
  "1265": "intelli",
  "1266": "odĠ",
  "1267": "grad",
  "1268": "object",
  "1269": "s,\n",
  "1270": "excep",
  "1271": "ĠthoseĠ",
  "1272": "yĠandĠ",
  "1273": "requ",
  "1274": "cent",
  "1275": "titud",
  "1276": "alwaysĠ",
  "1277": "istĠ",
  "1278": "conv",
  "1279": "histor",
  "1280": "matter",
  "1281": "himself",
  "1282": "abstr",
  "1283": "esĠandĠ",
  "1284": "personal",
  "1285": "1.",
  "1286": "angu",
  "1287": "doesĠnotĠ",
  "1288": "erĠtoĠ",
  "1289": "whil",
  "1290": "log",
  "1291": "fulĠ",
  "1292": "chan",
  "1293": ".ĠN",
  "1294": ".ĠM",
  "1295": "philosoph",
  "1296": "udg",
  "1297": "unc",
  "1298": "menĠ",
  "1299": "its\n",
  "1300": "hear",
  "1301": "contro",
  "1302": "’sĠ",
  "1303": "adv",
  "1304": "nowĠ",
  "1305": "tribut",
  "1306": "oung",
  "1307": "agre",
  "1308": "iveĠ",
  "1309": ".ĠE",
  "1310": "of\ntheĠ",
  "1311": "betweenĠ",
  "1312": "iter",
  "1313": "uallyĠ",
  "1314": "tau",
  "1315": "class",
  "1316": "iedĠ",
  "1317": "old",
  "1318": "ButĠ",
  "1319": ",ĠinĠ",
  "1320": ",ĠasĠ",
  "1321": "ideaĠ",
  "1322": "likeĠ",
  "1323": "instruc",
  "1324": "tlyĠ",
  "1325": "eĠandĠ",
  "1326": "allĠtheĠ",
  "1327": "ectiveĠ",
  "1328": "entific",
  "1329": ".\n\nTheĠ",
  "1330": "ingĠaĠ",
  "1331": "fail",
  "1332": "seeĠ",
  "1333": "interest",
  "1334": "astĠ",
  "1335": "worldĠ",
  "1336": "thor",
  "1337": "pleas",
  "1338": "influ",
  "1339": "ark",
  "1340": "jo",
  "1341": "sugges",
  "1342": "possibl",
  "1343": "factĠ",
  "1344": "sequ",
  "1345": "edĠtheĠ",
  "1346": "fam",
  "1347": "col",
  "1348": "clud",
  "1349": "young",
  "1350": "both",
  "1351": "need",
  "1352": "poin",
  "1353": "allow",
  "1354": "mentalĠ",
  "1355": "ings",
  "1356": "rough",
  "1357": "differentĠ",
  "1358": "longĠ",
  "1359": "regard",
  "1360": "num",
  "1361": "arm",
  "1362": "spea",
  "1363": ",ĠtoĠ",
  "1364": "bas",
  "1365": "presentĠ",
  "1366": "children",
  "1367": "purpos",
  "1368": "ishĠ",
  "1369": ",ĠorĠ",
  "1370": "tyĠ",
  "1371": "ature",
  "1372": "sym",
  "1373": "growth",
  "1374": "readyĠ",
  "1375": "thereforeĠ",
  "1376": "provid",
  "1377": "ereĠareĠ",
  "1378": "rul",
  "1379": "ectionĠ",
  "1380": "_)Ġ",
  "1381": "ER",
  "1382": "problem",
  "1383": "intellig",
  "1384": "valu",
  "1385": "o\n",
  "1386": "physicalĠ",
  "1387": "langu",
  "1388": "elementaryĠ",
  "1389": "IN",
  "1390": "wouldĠbeĠ",
  "1391": "fici",
  "1392": "fur",
  "1393": "justĠ",
  "1394": "generalĠ",
  "1395": "AN",
  "1396": "succ",
  "1397": "itherĠ",
  "1398": "app",
  "1399": "ProjectĠGutenberg™Ġ",
  "1400": "wellĠ",
  "1401": "effor",
  "1402": "somethingĠ",
  "1403": "discipl",
  "1404": "accep",
  "1405": "atesĠ",
  "1406": "ouslyĠ",
  "1407": "ca",
  "1408": ",ĠtheyĠ",
  "1409": "etherĠ",
  "1410": "del",
  "1411": "imagin",
  "1412": "edĠbyĠtheĠ",
  "1413": "sk",
  "1414": "ativ",
  "1415": "power",
  "1416": "any",
  "1417": "whichĠheĠ",
  "1418": "dĠtoĠ",
  "1419": "att",
  "1420": ",Ġthe\n",
  "1421": "ordin",
  "1422": "meaningĠ",
  "1423": "extern",
  "1424": "tal",
  "1425": "subjectĠ",
  "1426": "ingĠthatĠ",
  "1427": "elec",
  "1428": "orig",
  "1429": "trad",
  "1430": "siveĠ",
  "1431": "kind",
  "1432": "tingĠ",
  "1433": "titut",
  "1434": "electr",
  "1435": "ackĠ",
  "1436": "edĠasĠ",
  "1437": "with\n",
  "1438": "clear",
  "1439": "ness",
  "1440": "notĠbeĠ",
  "1441": "pec",
  "1442": "haveĠbeenĠ",
  "1443": "qual",
  "1444": "litt",
  "1445": "ir\n",
  "1446": "aph",
  "1447": "objectĠ",
  "1448": "lik",
  "1449": "sinc",
  "1450": "wer",
  "1451": "contin",
  "1452": "formĠ",
  "1453": "suf",
  "1454": "ivers",
  "1455": "when",
  "1456": "ont",
  "1457": "senseĠ",
  "1458": "stillĠ",
  "1459": "ofĠhisĠ",
  "1460": "judg",
  "1461": "prof",
  "1462": "bet",
  "1463": "inkĠ",
  "1464": "ut\n",
  "1465": "eĠthatĠ",
  "1466": "St",
  "1467": "oldĠ",
  "1468": "show",
  "1469": "require",
  "1470": "tionalĠ",
  "1471": "y,ĠandĠ",
  "1472": "gu",
  "1473": ",Ġ1",
  "1474": "ON",
  "1475": "complet",
  "1476": "sor",
  "1477": "anim",
  "1478": "itedĠ",
  "1479": "evil",
  "1480": "that\n",
  "1481": ",ĠwhichĠ",
  "1482": "termin",
  "1483": "alth",
  "1484": "on\n",
  "1485": "spiritĠ",
  "1486": "ThisĠ",
  "1487": "age",
  "1488": "charac",
  "1489": "character",
  "1490": "day",
  "1491": "howĠ",
  "1492": "yetĠ",
  "1493": "he\n",
  "1494": "particularĠ",
  "1495": "ectiv",
  "1496": "toward",
  "1497": "almostĠ",
  "1498": "dec",
  "1499": "setĠ",
  "1500": "weĠhaveĠ",
  "1501": "ogn",
  "1502": "co",
  "1503": "Ġthat\n",
  "1504": "practic",
  "1505": "eveĠ",
  "1506": "life,Ġ",
  "1507": "peopleĠ",
  "1508": ".\n\nI",
  "1509": "typ",
  "1510": "freed",
  "1511": "famil",
  "1512": "faculti",
  "1513": "En",
  "1514": "commun",
  "1515": "seem",
  "1516": "comeĠ",
  "1517": "tenĠ",
  "1518": "matterĠ",
  "1519": "mom",
  "1520": "ens",
  "1521": "”Ġ",
  "1522": "poss",
  "1523": "electron",
  "1524": "ll",
  "1525": ".ĠToĠ",
  "1526": "esĠtoĠ",
  "1527": "tendenc",
  "1528": "ould\n",
  "1529": "origin",
  "1530": "perhap",
  "1531": "find",
  "1532": "alreadyĠ",
  "1533": "don",
  "1534": "we\n",
  "1535": "however",
  "1536": ",\nandĠ",
  "1537": "inĠthisĠ",
  "1538": "cours",
  "1539": "ance",
  "1540": "truth",
  "1541": "organ",
  "1542": "wa",
  "1543": "toĠthe\n",
  "1544": "cul",
  "1545": "book",
  "1546": "conce",
  "1547": "ĠĠĠĠĠĠĠĠĠĠĠĠĠĠĠĠ",
  "1548": "sĠwhichĠ",
  "1549": "edĠwithĠ",
  "1550": "scientific",
  "1551": "atingĠ",
  "1552": ",ĠisĠ",
  "1553": "alis",
  "1554": "ĠO",
  "1555": "ofĠtheirĠ",
  "1556": "conclus",
  "1557": "chang",
  "1558": "herĠ",
  "1559": "play",
  "1560": "developmentĠ",
  "1561": ".\"Ġ",
  "1562": "overĠ",
  "1563": "dea",
  "1564": "timul",
  "1565": "Man",
  "1566": "Engl",
  "1567": "view",
  "1568": "doneĠ",
  "1569": "distinc",
  "1570": "abil",
  "1571": "theseĠ",
  "1572": "ts",
  "1573": "tĠisĠ",
  "1574": "stimul",
  "1575": "eng",
  "1576": "inĠitsĠ",
  "1577": "ship",
  "1578": "eĠaĠ",
  "1579": "ous\n",
  "1580": "ĠthoughtĠ",
  "1581": "draw",
  "1582": "realityĠ",
  "1583": "tions",
  "1584": "great",
  "1585": "ablyĠ",
  "1586": "we",
  "1587": "care",
  "1588": "tol",
  "1589": "stor",
  "1590": "vit",
  "1591": "exer",
  "1592": "electronicĠ",
  "1593": "nothingĠ",
  "1594": "ated",
  "1595": "eĠofĠtheĠ",
  "1596": "bil",
  "1597": "every",
  "1598": "makesĠ",
  "1599": "thingsĠ",
  "1600": "Ġf",
  "1601": "what",
  "1602": "toĠaĠ",
  "1603": "assum",
  "1604": "curr",
  "1605": "er\n",
  "1606": "system",
  "1607": "ane",
  "1608": "andĠthatĠ",
  "1609": "firm",
  "1610": "EN",
  "1611": "author",
  "1612": "ack",
  "1613": "adĠ",
  "1614": "importantĠ",
  "1615": "rem",
  "1616": "asĠtoĠ",
  "1617": "gres",
  "1618": "ly,Ġ",
  "1619": "thereĠisĠ",
  "1620": "attitud",
  "1621": ".ĠThe",
  "1622": "needĠ",
  "1623": "ismĠ",
  "1624": "ings,Ġ",
  "1625": "famili",
  "1626": "inqu",
  "1627": "percep",
  "1628": "countr",
  "1629": ".ĠC",
  "1630": "iousĠ",
  "1631": "individual",
  "1632": "againstĠ",
  "1633": "bestĠ",
  "1634": "systemĠ",
  "1635": "world",
  "1636": "hisĠownĠ",
  "1637": "heĠhasĠ",
  "1638": "rather",
  "1639": "illĠ",
  "1640": "order",
  "1641": "sc",
  "1642": "expl",
  "1643": "able",
  "1644": "anotherĠ",
  "1645": "gen",
  "1646": "mechan",
  "1647": "An",
  "1648": "itsĠownĠ",
  "1649": "anal",
  "1650": ".ĠIf",
  "1651": "TI",
  "1652": "ge",
  "1653": "invol",
  "1654": "moder",
  "1655": "ection",
  "1656": "bor",
  "1657": "encesĠ",
  "1658": "ligh",
  "1659": "boy",
  "1660": "good",
  "1661": "pol",
  "1662": "exampl",
  "1663": "goĠ",
  "1664": "taughtĠ",
  "1665": "inĠwhichĠ",
  "1666": "ent\n",
  "1667": "continu",
  "1668": "understand",
  "1669": "hoo",
  "1670": "well",
  "1671": "eĠforĠ",
  "1672": "oftenĠ",
  "1673": "thoughtĠ",
  "1674": "hea",
  "1675": "prom",
  "1676": "littleĠ",
  "1677": "socialĠ",
  "1678": ".ĠThe\n",
  "1679": "yingĠ",
  "1680": "mereĠ",
  "1681": "ick",
  "1682": "tra",
  "1683": "has\n",
  "1684": "soul",
  "1685": "ĠĠĠĠĠĠ",
  "1686": "satis",
  "1687": "amĠ",
  "1688": "suppos",
  "1689": "imp",
  "1690": "pĠ",
  "1691": "Found",
  "1692": "ies",
  "1693": "pun",
  "1694": "eitherĠ",
  "1695": "sĠaĠ",
  "1696": "achi",
  "1697": "variousĠ",
  "1698": "ness,Ġ",
  "1699": "lin",
  "1700": "CH",
  "1701": "educationalĠ",
  "1702": "kin",
  "1703": "determin",
  "1704": "empl",
  "1705": "medi",
  "1706": "some",
  "1707": "wish",
  "1708": "all\n",
  "1709": "infer",
  "1710": "inn",
  "1711": "ask",
  "1712": "FĠ",
  "1713": "virt",
  "1714": "ally\n",
  "1715": "essĠofĠ",
  "1716": "knowĠ",
  "1717": "master",
  "1718": "ond",
  "1719": "takenĠ",
  "1720": "er,Ġ",
  "1721": "desire",
  "1722": "orĠtheĠ",
  "1723": "accoun",
  "1724": "ĠthingsĠ",
  "1725": "punish",
  "1726": "pas",
  "1727": "obedi",
  "1728": "func",
  "1729": "II",
  "1730": "merelyĠ",
  "1731": "theyĠareĠ",
  "1732": "individualĠ",
  "1733": "concer",
  "1734": "nam",
  "1735": "whileĠ",
  "1736": "path",
  "1737": "consequ",
  "1738": "turn",
  "1739": "interestĠ",
  "1740": "from\n",
  "1741": "sou",
  "1742": "copy",
  "1743": "DĠ",
  "1744": "necessaryĠ",
  "1745": "appl",
  "1746": "eĠisĠ",
  "1747": "progres",
  "1748": "y-",
  "1749": ".ĠOn",
  "1750": "ris",
  "1751": "pass",
  "1752": "ceĠ",
  "1753": "soulĠ",
  "1754": ".ĠD",
  "1755": "ess,Ġ",
  "1756": "idealĠ",
  "1757": "oub",
  "1758": "necessar",
  "1759": "my",
  "1760": "epar",
  "1761": "our\n",
  "1762": "bu",
  "1763": "evid",
  "1764": "suggest",
  "1765": "recogn",
  "1766": "deta",
  "1767": "la",
  "1768": "afterĠ",
  "1769": "ceas",
  "1770": "look",
  "1771": "leg",
  "1772": "e.ĠTheĠ",
  "1773": ".ĠWhatĠ",
  "1774": "tionĠofĠtheĠ",
  "1775": "univers",
  "1776": "trueĠ",
  "1777": "health",
  "1778": "meĠ",
  "1779": "proper",
  "1780": "sit",
  "1781": "const",
  "1782": "loveĠ",
  "1783": "inĠhisĠ",
  "1784": "becomesĠ",
  "1785": "bothĠ",
  "1786": "believeĠ",
  "1787": "bey",
  "1788": "quiteĠ",
  "1789": "hy",
  "1790": "ation\n",
  "1791": "point",
  "1792": "concre",
  "1793": "atelyĠ",
  "1794": "aff",
  "1795": "hop",
  "1796": "inde",
  "1797": "adm",
  "1798": "informationĠ",
  "1799": "cri",
  "1800": "epĠ",
  "1801": "other\n",
  "1802": "carr",
  "1803": "fus",
  "1804": "appear",
  "1805": "ationĠofĠtheĠ",
  "1806": "weĠareĠ",
  "1807": "relyĠ",
  "1808": "habitsĠ",
  "1809": "ustr",
  "1810": "forĠaĠ",
  "1811": "question",
  "1812": "atten",
  "1813": "bro",
  "1814": "accord",
  "1815": "findĠ",
  "1816": "s,ĠtheĠ",
  "1817": "sing",
  "1818": "externalĠ",
  "1819": "perf",
  "1820": "thenĠ",
  "1821": "includ",
  "1822": "icallyĠ",
  "1823": "farĠasĠ",
  "1824": ",ĠitĠ",
  "1825": "foundĠ",
  "1826": "involv",
  "1827": "redĠ",
  "1828": "e.\n\n",
  "1829": "conduc",
  "1830": "signific",
  "1831": "den",
  "1832": "rece",
  "1833": "ww",
  "1834": "Ar",
  "1835": "sych",
  "1836": "ext",
  "1837": "usef",
  "1838": "withĠaĠ",
  "1839": "ict",
  "1840": "isi",
  "1841": "oper",
  "1842": "ersĠ",
  "1843": ".Ġ_",
  "1844": "meaning",
  "1845": "THEĠ",
  "1846": "TĠ",
  "1847": "youngĠ",
  "1848": "e,ĠbutĠ",
  "1849": "IĠhaveĠ",
  "1850": "will\n",
  "1851": "ingu",
  "1852": "interpre",
  "1853": ".ĠInĠtheĠ",
  "1854": "not",
  "1855": "realĠ",
  "1856": ".ĠWhenĠ",
  "1857": ",ĠnotĠ",
  "1858": "Ġtheir\n",
  "1859": "prob",
  "1860": "out\n",
  "1861": "child'sĠ",
  "1862": "ĠOFĠ",
  "1863": "lead",
  "1864": "exceptĠ",
  "1865": "playĠ",
  "1866": "earlyĠ",
  "1867": "s.ĠTheĠ",
  "1868": "e,\n",
  "1869": "specialĠ",
  "1870": ",ĠaĠ",
  "1871": "such",
  "1872": "ator",
  "1873": "entsĠ",
  "1874": "in\ntheĠ",
  "1875": "meansĠ",
  "1876": "ight",
  "1877": ";ĠtheĠ",
  "1878": "wordĠ",
  "1879": "speak",
  "1880": "super",
  "1881": "obvi",
  "1882": "cis",
  "1883": "wardĠ",
  "1884": "1.E",
  "1885": "ondĠ",
  "1886": "ĠtheyĠareĠ",
  "1887": "depend",
  "1888": "numb",
  "1889": "ri",
  "1890": "dom",
  "1891": "reallyĠ",
  "1892": "personĠ",
  "1893": "activityĠ",
  "1894": "practicalĠ",
  "1895": "sal",
  "1896": "appe",
  "1897": ";\nĠĠĠĠ",
  "1898": ".ĠL",
  "1899": "gir",
  "1900": "s\nofĠ",
  "1901": "ofĠtheseĠ",
  "1902": "men",
  "1903": "andĠthereforeĠ",
  "1904": "perhapsĠ",
  "1905": "attemp",
  "1906": "du",
  "1907": "long",
  "1908": "meas",
  "1909": "ve",
  "1910": "s;Ġ",
  "1911": "degre",
  "1912": "constitut",
  "1913": "ubl",
  "1914": "courseĠ",
  "1915": ",ĠifĠ",
  "1916": "thereĠ",
  "1917": "ical\n",
  "1918": "esĠareĠ",
  "1919": "err",
  "1920": "aris",
  "1921": "ultĠ",
  "1922": "reach",
  "1923": "have\n",
  "1924": "underĠ",
  "1925": "fullĠ",
  "1926": "--theĠ",
  "1927": "cultureĠ",
  "1928": "harm",
  "1929": "inquir",
  "1930": "tom",
  "1931": "yearsĠ",
  "1932": "tionĠisĠ",
  "1933": "yĠofĠtheĠ",
  "1934": "appre",
  "1935": "pri",
  "1936": "sm",
  "1937": "but\n",
  "1938": "difficult",
  "1939": "ual\n",
  "1940": "situ",
  "1941": "selves",
  "1942": "anci",
  "1943": "test",
  "1944": "tĠandĠ",
  "1945": "conceiv",
  "1946": "1.E.",
  "1947": "examinationĠ",
  "1948": "entalĠ",
  "1949": "tĠtheĠ",
  "1950": "suchĠaĠ",
  "1951": "concern",
  "1952": "doub",
  "1953": "ely",
  "1954": "being",
  "1955": "termsĠ",
  "1956": "imin",
  "1957": "construc",
  "1958": "edĠthatĠ",
  "1959": "spont",
  "1960": "spontane",
  "1961": "lov",
  "1962": "freeĠ",
  "1963": "expect",
  "1964": "RE",
  "1965": "schoolsĠ",
  "1966": "wid",
  "1967": "ignor",
  "1968": "elĠ",
  "1969": "chn",
  "1970": "scienceĠ",
  "1971": "aĠth",
  "1972": "turnĠ",
  "1973": "ingĠisĠ",
  "1974": "disciplin",
  "1975": "Sch",
  "1976": "senseĠofĠ",
  "1977": "toĠth",
  "1978": "experienceĠ",
  "1979": "so\n",
  "1980": "boyĠ",
  "1981": "e_Ġ",
  "1982": "whetherĠ",
  "1983": "furtherĠ",
  "1984": "one\n",
  "1985": "oy",
  "1986": "e;Ġ",
  "1987": "capac",
  "1988": "techn",
  "1989": "resultsĠ",
  "1990": "ical",
  "1991": "simpl",
  "1992": ",ĠweĠ",
  "1993": "inf",
  "1994": "detail",
  "1995": "culture",
  "1996": "demand",
  "1997": "whichĠitĠ",
  "1998": "graduallyĠ",
  "1999": "pathĠ"
}