{
  "0": "\u0000",
  "1": "\u0001",
  "2": "\u0002",
  "3": "\u0003",
  "4": "\u0004",
  "5": "\u0005",
  "6": "\u0006",
  "7": "\u0007",
  "8": "\b",
  "9": "\t",
  "10": "\n",
  "11": "\u000b",
  "12": "\f",
  "13": "\r",
  "14": "\u000e",
  "15": "\u000f",
  "16": "\u0010",
  "17": "\u0011",
  "18": "\u0012",
  "19": "\u0013",
  "20": "\u0014",
  "21": "\u0015",
  "22": "\u0016",
  "23": "\u0017",
  "24": "\u0018",
  "25": "\u0019",
  "26": "\u001a",
  "27": "\u001b",
  "28": "\u001c",
  "29": "\u001d",
  "30": "\u001e",
  "31": "\u001f",
  "32": " ",
  "33": "!",
  "34": "\"",
  "35": "#",
  "36": "$",
  "37": "%",
  "38": "&",
  "39": "'",
  "40": "(",
  "41": ")",
  "42": "*",
  "43": "+",
  "44": ",",
  "45": "-",
  "46": ".",
  "47": "/",
  "48": "0",
  "49": "1",
  "50": "2",
  "51": "3",
  "52": "4",
  "53": "5",
  "54": "6",
  "55": "7",
  "56": "8",
  "57": "9",
  "58": ":",
  "59": ";",
  "60": "<",
  "61": "=",
  "62": ">",
  "63": "?",
  "64": "@",
  "65": "A",
  "66": "B",
  "67": "C",
  "68": "D",
  "69": "E",
  "70": "F",
  "71": "G",
  "72": "H",
  "73": "I",
  "74": "J",
  "75": "K",
  "76": "L",
  "77": "M",
  "78": "N",
  "79": "O",
  "80": "P",
  "81": "Q",
  "82": "R",
  "83": "S",
  "84": "T",
  "85": "U",
  "86": "V",
  "87": "W",
  "88": "X",
  "89": "Y",
  "90": "Z",
  "91": "[",
  "92": "\\",
  "93": "]",
  "94": "^",
  "95": "_",
  "96": "`",
  "97": "a",
  "98": "b",
  "99": "c",
  "100": "d",
  "101": "e",
  "102": "f",
  "103": "g",
  "104": "h",
  "105": "i",
  "106": "j",
  "107": "k",
  "108": "l",
  "109": "m",
  "110": "n",
  "111": "o",
  "112": "p",
  "113": "q",
  "114": "r",
  "115": "s",
  "116": "t",
  "117": "u",
  "118": "v",
  "119": "w",
  "120": "x",
  "121": "y",
  "122": "z",
  "123": "{",
  "124": "|",
  "125": "}",
  "126": "~",
  "127": "",
  "128": "",
  "129": "",
  "130": "",
  "131": "",
  "132": "",
  "133": "",
  "134": "",
  "135": "",
  "136": "",
  "137": "",
  "138": "",
  "139": "",
  "140": "",
  "141": "",
  "142": "",
  "143": "",
  "144": "",
  "145": "",
  "146": "",
  "147": "",
  "148": "",
  "149": "",
  "150": "",
  "151": "",
  "152": "",
  "153": "",
  "154": "",
  "155": "",
  "156": "",
  "157": "",
  "158": "",
  "159": "",
  "160": " ",
  "161": "¡",
  "162": "¢",
  "163": "£",
  "164": "¤",
  "165": "¥",
  "166": "¦",
  "167": "§",
  "168": "¨",
  "169": "©",
  "170": "ª",
  "171": "«",
  "172": "¬",
  "173": "­",
  "174": "®",
  "175": "¯",
  "176": "°",
  "177": "±",
  "178": "²",
  "179": "³",
  "180": "´",
  "181": "µ",
  "182": "¶",
  "183": "·",
  "184": "¸",
  "185": "¹",
  "186": "º",
  "187": "»",
  "188": "¼",
  "189": "½",
  "190": "¾",
  "191": "¿",
  "192": "À",
  "193": "Á",
  "194": "Â",
  "195": "Ã",
  "196": "Ä",
  "197": "Å",
  "198": "Æ",
  "199": "Ç",
  "200": "È",
  "201": "É",
  "202": "Ê",
  "203": "Ë",
  "204": "Ì",
  "205": "Í",
  "206": "Î",
  "207": "Ï",
  "208": "Ð",
  "209": "Ñ",
  "210": "Ò",
  "211": "Ó",
  "212": "Ô",
  "213": "Õ",
  "214": "Ö",
  "215": "×",
  "216": "Ø",
  "217": "Ù",
  "218": "Ú",
  "219": "Û",
  "220": "Ü",
  "221": "Ý",
  "222": "Þ",
  "223": "ß",
  "224": "à",
  "225": "á",
  "226": "â",
  "227": "ã",
  "228": "ä",
  "229": "å",
  "230": "æ",
  "231": "ç",
  "232": "è",
  "233": "é",
  "234": "ê",
  "235": "ë",
  "236": "ì",
  "237": "í",
  "238": "î",
  "239": "ï",
  "240": "ð",
  "241": "ñ",
  "242": "ò",
  "243": "ó",
  "244": "ô",
  "245": "õ",
  "246": "ö",
  "247": "÷",
  "248": "ø",
  "249": "ù",
  "250": "ú",
  "251": "û",
  "252": "ü",
  "253": "ý",
  "254": "þ",
  "255": "ÿ",
  "256": "Ġ",
  "257": "Œ",
  "258": "–",
  "259": "—",
  "260": "‘",
  "261": "’",
  "262": "“",
  "263": "”",
  "264": "•",
  "265": "™",
  "266": "<|start|>",
  "267": "<|endoftext|>",
  "268": "eĠ",
  "269": "th",
  "270": "sĠ",
  "271": "in",
  "272": "tĠ",
  "273": "Ġth",
  "274": "er",
  "275": "an",
  "276": "on",
  "277": "dĠ",
  "278": "en",
  "279": ",Ġ",
  "280": "of",
  "281": "or",
  "282": "ti",
  "283": "yĠ",
  "284": "al",
  "285": "ĠtheĠ",
  "286": "re",
  "287": "to",
  "288": "ar",
  "289": "ou",
  "290": "ch",
  "291": "isĠ",
  "292": "ĠĠ",
  "293": "ing",
  "294": "ofĠ",
  "295": ".Ġ",
  "296": "es",
  "297": "toĠ",
  "298": "tion",
  "299": "it",
  "300": "andĠ",
  "301": "is",
  "302": "wh",
  "303": "at",
  "304": "atĠ",
  "305": "el",
  "306": "edĠ",
  "307": "il",
  "308": "aĠ",
  "309": "om",
  "310": "ingĠ",
  "311": "ec",
  "312": "theĠ",
  "313": "ed",
  "314": "inĠ",
  "315": "no",
  "316": "for",
  "317": "asĠ",
  "318": "e\n",
  "319": "st",
  "320": "erĠ",
  "321": "esĠ",
  "322": "ac",
  "323": "alĠ",
  "324": "ation",
  "325": "ĠĠĠĠ",
  "326": "as",
  "327": "ro",
  "328": "ic",
  "329": "chĠ",
  "330": "con",
  "331": "em",
  "332": "ol",
  "333": "itĠ",
  "334": "su",
  "335": "lyĠ",
  "336": "\n\n",
  "337": "im",
  "338": "ir",
  "339": "whi",
  "340": "enĠ",
  "341": "veĠ",
  "342": "heĠ",
  "343": "us",
  "344": "ent",
  "345": "lĠ",
  "346": "ith",
  "347": "id",
  "348": "anĠ",
  "349": "and",
  "350": "ev",
  "351": "ex",
  "352": "gh",
  "353": "if",
  "354": "oĠ",
  "355": "beĠ",
  "356": "os",
  "357": "ofĠtheĠ",
  "358": "ul",
  "359": "pl",
  "360": "be",
  "361": "ha",
  "362": "with",
  "363": "ur",
  "364": "un",
  "365": "ma",
  "366": "whichĠ",
  "367": "tr",
  "368": "notĠ",
  "369": "bl",
  "370": "orĠ",
  "371": "e,Ġ",
  "372": "ow",
  "373": ".ĠT",
  "374": "areĠ",
  "375": "--",
  "376": "ĠthatĠ",
  "377": "uc",
  "378": "ea",
  "379": "s,Ġ",
  "380": "enc",
  "381": "per",
  "382": "ter",
  "383": "ationĠ",
  "384": "our",
  "385": "iv",
  "386": "hisĠ",
  "387": "sp",
  "388": "entĠ",
  "389": "utĠ",
  "390": "ag",
  "391": "onĠ",
  "392": "pro",
  "393": "wor",
  "394": "si",
  "395": "thatĠ",
  "396": "chil",
  "397": "am",
  "398": "sel",
  "399": "eĠofĠ",
  "400": ".\n\n",
  "401": ".ĠI",
  "402": "ad",
  "403": "pre",
  "404": "ci",
  "405": "qu",
  "406": "oul",
  "407": "ta",
  "408": "ereĠ",
  "409": "fr",
  "410": "me",
  "411": "sh",
  "412": "tionĠ",
  "413": "ear",
  "414": "com",
  "415": ",\n",
  "416": "oth",
  "417": "Ġthe\n",
  "418": "weĠ",
  "419": "ĠĠĠĠĠĠĠĠ",
  "420": "ep",
  "421": "y\n",
  "422": "y,Ġ",
  "423": "tic",
  "424": ";Ġ",
  "425": "ough",
  "426": "forĠ",
  "427": "byĠ",
  "428": "inĠtheĠ",
  "429": "nĠ",
  "430": "ect",
  "431": "ut",
  "432": "ind",
  "433": "from",
  "434": "ap",
  "435": "up",
  "436": "Ġthe",
  "437": "op",
  "438": "itsĠ",
  "439": "ouldĠ",
  "440": "all",
  "441": "self",
  "442": "se",
  "443": "par",
  "444": "s\n",
  "445": "kĠ",
  "446": "pos",
  "447": "haveĠ",
  "448": "ab",
  "449": "withĠ",
  "450": "of\n",
  "451": "ef",
  "452": "li",
  "453": "dis",
  "454": "sĠofĠ",
  "455": "oun",
  "456": "ityĠ",
  "457": "wil",
  "458": ",ĠandĠ",
  "459": "od",
  "460": "ver",
  "461": "toĠtheĠ",
  "462": "child",
  "463": "cho",
  "464": "str",
  "465": "educ",
  "466": "form",
  "467": "bleĠ",
  "468": "hasĠ",
  "469": "butĠ",
  "470": "mor",
  "471": "chool",
  "472": "ess",
  "473": ",ĠtheĠ",
  "474": ".ĠTheĠ",
  "475": "ĠthisĠ",
  "476": "cl",
  "477": "pr",
  "478": "um",
  "479": "outĠ",
  "480": "is\n",
  "481": "school",
  "482": "essĠ",
  "483": "igh",
  "484": "oneĠ",
  "485": "the",
  "486": "lif",
  "487": "allĠ",
  "488": "ay",
  "489": "now",
  "490": "ourĠ",
  "491": "ectĠ",
  "492": "int",
  "493": "willĠ",
  "494": "and\n",
  "495": "him",
  "496": "irĠ",
  "497": "ob",
  "498": "act",
  "499": "ud",
  "500": "ustĠ",
  "501": "soĠ",
  "502": "bec",
  "503": "cons",
  "504": "tiv",
  "505": "pres",
  "506": "anc",
  "507": "ure",
  "508": "itĠisĠ",
  "509": "end",
  "510": ".ĠA",
  "511": "inc",
  "512": "whatĠ",
  "513": "ever",
  "514": "anyĠ",
  "515": "oo",
  "516": "nat",
  "517": "enceĠ",
  "518": "ist",
  "519": "som",
  "520": "each",
  "521": "IĠ",
  "522": "so",
  "523": "allyĠ",
  "524": "mayĠ",
  "525": "di",
  "526": "to\n",
  "527": "ne",
  "528": "gr",
  "529": "do",
  "530": "rec",
  "531": "t\n",
  "532": "toĠbeĠ",
  "533": "fromĠ",
  "534": "teach",
  "535": "tiveĠ",
  "536": "which",
  "537": "cep",
  "538": "ateĠ",
  "539": "ousĠ",
  "540": "mean",
  "541": "der",
  "542": "know",
  "543": "otherĠ",
  "544": "ĠofĠ",
  "545": "row",
  "546": ":Ġ",
  "547": "keĠ",
  "548": "moreĠ",
  "549": ".\n",
  "550": "ph",
  "551": "ain",
  "552": "tw",
  "553": "childr",
  "554": "ureĠ",
  "555": "mustĠ",
  "556": ".ĠTh",
  "557": "sub",
  "558": "elyĠ",
  "559": "ish",
  "560": "ber",
  "561": "tim",
  "562": "es,Ġ",
  "563": "emĠ",
  "564": "de",
  "565": "wasĠ",
  "566": "aw",
  "567": "ot",
  "568": "noĠ",
  "569": "ard",
  "570": "fer",
  "571": "shouldĠ",
  "572": "icalĠ",
  "573": ".ĠW",
  "574": "et",
  "575": "arĠ",
  "576": "ell",
  "577": "ayĠ",
  "578": "fic",
  "579": "jectĠ",
  "580": "eas",
  "581": ".ĠB",
  "582": "ableĠ",
  "583": "\"Ġ",
  "584": "ong",
  "585": "canĠ",
  "586": "in\n",
  "587": "yĠtheĠ",
  "588": "sĠandĠ",
  "589": "other",
  "590": "ment",
  "591": "est",
  "592": "aryĠ",
  "593": "al\n",
  "594": "og",
  "595": "spir",
  "596": "duc",
  "597": "seĠ",
  "598": "childĠ",
  "599": "useĠ",
  "600": "ualĠ",
  "601": "andĠtheĠ",
  "602": "a\n",
  "603": "whoĠ",
  "604": "mat",
  "605": "ĠtheirĠ",
  "606": "grow",
  "607": "edĠtoĠ",
  "608": "ing,Ġ",
  "609": "sy",
  "610": "ofĠth",
  "611": "beenĠ",
  "612": "gre",
  "613": "real",
  "614": "ant",
  "615": "ed,Ġ",
  "616": "ang",
  "617": "dif",
  "618": "ĠtheyĠ",
  "619": "ing\n",
  "620": "fl",
  "621": "TheĠ",
  "622": "ous",
  "623": "estĠ",
  "624": "stĠ",
  "625": "thĠ",
  "626": "cr",
  "627": "atedĠ",
  "628": "you",
  "629": "ink",
  "630": "por",
  "631": "ere",
  "632": "man",
  "633": "doĠ",
  "634": "ser",
  "635": "cont",
  "636": "ifĠ",
  "637": ",Ġth",
  "638": "ed\n",
  "639": "eseĠ",
  "640": "inter",
  "641": "work",
  "642": "ject",
  "643": "foreĠ",
  "644": "enti",
  "645": "fe",
  "646": "ig",
  "647": "ĠĠĠĠĠĠĠĠĠĠĠĠĠĠĠĠ",
  "648": "ide",
  "649": "wouldĠ",
  "650": "sa",
  "651": "are",
  "652": "usĠ",
  "653": "onlyĠ",
  "654": "pers",
  "655": "eth",
  "656": "ity",
  "657": "everĠ",
  "658": "education",
  "659": "ostĠ",
  "660": "the\n",
  "661": "sen",
  "662": "oc",
  "663": "itself",
  "664": "possi",
  "665": "fir",
  "666": "ownĠ",
  "667": ".ĠItĠ",
  "668": "_Ġ",
  "669": "fac",
  "670": "at\n",
  "671": "theyĠ",
  "672": "isĠtheĠ",
  "673": "iesĠ",
  "674": "cer",
  "675": ")Ġ",
  "676": "terĠ",
  "677": "Pro",
  "678": "ener",
  "679": "uten",
  "680": "oughtĠ",
  "681": "berg",
  "682": "oseĠ",
  "683": "dev",
  "684": "po",
  "685": "----",
  "686": "utenberg",
  "687": "ingsĠ",
  "688": "etĠ",
  "689": "onĠtheĠ",
  "690": ".ĠButĠ",
  "691": "ement",
  "692": "ightĠ",
  "693": "forĠtheĠ",
  "694": "tru",
  "695": "des",
  "696": "educationĠ",
  "697": "becom",
  "698": "gi",
  "699": "bel",
  "700": "inst",
  "701": "go",
  "702": "'sĠ",
  "703": "ful",
  "704": "antĠ",
  "705": "lifeĠ",
  "706": "youĠ",
  "707": "pe",
  "708": "intoĠ",
  "709": "tsĠ",
  "710": "ingĠtheĠ",
  "711": "ath",
  "712": "icĠ",
  "713": "br",
  "714": "withĠtheĠ",
  "715": "schoolĠ",
  "716": "read",
  "717": "ound",
  "718": "ov",
  "719": "eĠtoĠ",
  "720": "min",
  "721": "af",
  "722": "cas",
  "723": "Gutenberg",
  "724": "under",
  "725": "vi",
  "726": "someĠ",
  "727": "acc",
  "728": "spirit",
  "729": "suchĠ",
  "730": "ord",
  "731": "led",
  "732": "ult",
  "733": "childrenĠ",
  "734": "beca",
  "735": "workĠ",
  "736": "byĠtheĠ",
  "737": "mostĠ",
  "738": "fĠ",
  "739": "whenĠ",
  "740": "veryĠ",
  "741": "thisĠ",
  "742": "giv",
  "743": "comm",
  "744": "tĠofĠ",
  "745": "fre",
  "746": "iti",
  "747": "how",
  "748": "ity,Ġ",
  "749": "ĠtoĠ",
  "750": "iz",
  "751": "tit",
  "752": "ledg",
  "753": "t,Ġ",
  "754": "ass",
  "755": "beingĠ",
  "756": "mu",
  "757": "way",
  "758": "e:Ġ",
  "759": "]\n\n",
  "760": "as\n",
  "761": "nec",
  "762": "natur",
  "763": "tionsĠ",
  "764": "iden",
  "765": "fact",
  "766": "ire",
  "767": "knowledg",
  "768": ",--",
  "769": "fa",
  "770": "tl",
  "771": "exper",
  "772": "wereĠ",
  "773": "til",
  "774": "reas",
  "775": "cipl",
  "776": "hap",
  "777": "port",
  "778": "can",
  "779": ".ĠH",
  "780": "ereĠisĠ",
  "781": "oughĠ",
  "782": "becauseĠ",
  "783": "ticĠ",
  "784": "hum",
  "785": "wĠ",
  "786": "ameĠ",
  "787": "ofĠthe\n",
  "788": "elop",
  "789": "mentĠ",
  "790": "sĠtoĠ",
  "791": "dĠofĠ",
  "792": "ib",
  "793": "andĠth",
  "794": "worl",
  "795": "gener",
  "796": "lessĠ",
  "797": "en\n",
  "798": "fromĠtheĠ",
  "799": "consid",
  "800": "develop",
  "801": "certa",
  "802": ".ĠWh",
  "803": "tionĠofĠ",
  "804": "person",
  "805": "ProjectĠ",
  "806": "ProjectĠGutenberg",
  "807": "[S",
  "808": "[Siden",
  "809": "[Sidenot",
  "810": "sci",
  "811": "rel",
  "812": "meth",
  "813": "whichĠisĠ",
  "814": "arg",
  "815": "lear",
  "816": "ineĠ",
  "817": "esĠofĠ",
  "818": "[Sidenote:Ġ",
  "819": "withoutĠ",
  "820": "oll",
  "821": "soci",
  "822": ".ĠF",
  "823": "gg",
  "824": "beli",
  "825": "edĠinĠ",
  "826": "selv",
  "827": ".ĠS",
  "828": "over",
  "829": "ans",
  "830": "eĠtheĠ",
  "831": "ism",
  "832": "whol",
  "833": "differ",
  "834": "abl",
  "835": "exam",
  "836": "ys",
  "837": "es\n",
  "838": "Ġthem",
  "839": "def",
  "840": "asĠaĠ",
  "841": "anceĠ",
  "842": "himself",
  "843": "year",
  "844": "activ",
  "845": "eri",
  "846": "sion",
  "847": "reg",
  "848": "ten",
  "849": "fin",
  "850": "cour",
  "851": "edĠbyĠ",
  "852": "sul",
  "853": ",ĠthatĠ",
  "854": "ook",
  "855": "dr",
  "856": "hadĠ",
  "857": "ageĠ",
  "858": "ill",
  "859": "resp",
  "860": "teacher",
  "861": "ereforeĠ",
  "862": "mak",
  "863": "ĠandĠ",
  "864": ",ĠbutĠ",
  "865": "consci",
  "866": "firstĠ",
  "867": "resul",
  "868": "mis",
  "869": "oodĠ",
  "870": "\ntheĠ",
  "871": "consider",
  "872": "pup",
  "873": "instinc",
  "874": "tak",
  "875": "isĠnotĠ",
  "876": "doesĠ",
  "877": "cop",
  "878": "ation,Ġ",
  "879": "concep",
  "880": "them",
  "881": "twe",
  "882": "struc",
  "883": "bo",
  "884": "cre",
  "885": "produc",
  "886": "be\n",
  "887": ".ĠAn",
  "888": "life",
  "889": "pupil",
  "890": "e,ĠandĠ",
  "891": "ationĠofĠ",
  "892": "self-",
  "893": "evenĠ",
  "894": "s,ĠandĠ",
  "895": "out",
  "896": "manĠ",
  "897": "ivid",
  "898": "ongĠ",
  "899": "yĠofĠ",
  "900": "everyĠ",
  "901": "serv",
  "902": "thingĠ",
  "903": "ari",
  "904": "en,Ġ",
  "905": "betwe",
  "906": "spec",
  "907": "word",
  "908": "iseĠ",
  "909": "?Ġ",
  "910": "asĠtheĠ",
  "911": "sionĠ",
  "912": "sol",
  "913": "cur",
  "914": "ce",
  "915": "aboutĠ",
  "916": "compl",
  "917": "direc",
  "918": "ion",
  "919": "uponĠ",
  "920": "iteĠ",
  "921": "inĠaĠ",
  "922": "himĠ",
  "923": "nessĠ",
  "924": "Th",
  "925": "sĠthatĠ",
  "926": "intell",
  "927": "cannotĠ",
  "928": "tedĠ",
  "929": "tion,Ġ",
  "930": "sugg",
  "931": "ques",
  "932": "edi",
  "933": "sĠtheĠ",
  "934": "comp",
  "935": ".ĠIn",
  "936": "pow",
  "937": "prov",
  "938": "ip",
  "939": "isĠaĠ",
  "940": "train",
  "941": "d\n",
  "942": "ence",
  "943": "ardĠ",
  "944": "sup",
  "945": ";ĠandĠ",
  "946": "stud",
  "947": "mad",
  "948": "theirĠ",
  "949": "learn",
  "950": "intellect",
  "951": "necess",
  "952": "sameĠ",
  "953": ".ĠThisĠ",
  "954": "experi",
  "955": ".ĠO",
  "956": "teacherĠ",
  "957": "makeĠ",
  "958": "tend",
  "959": "ual",
  "960": "enĠtheĠ",
  "961": "import",
  "962": "is,Ġ",
  "963": "sec",
  "964": "ingĠtoĠ",
  "965": "iver",
  "966": "exist",
  "967": "an\n",
  "968": "eachĠ",
  "969": "mayĠbeĠ",
  "970": "ingĠofĠ",
  "971": "ofĠthisĠ",
  "972": "sur",
  "973": "subject",
  "974": "plac",
  "975": "lea",
  "976": "und",
  "977": "ilyĠ",
  "978": "ationsĠ",
  "979": "prac",
  "980": "mind",
  "981": "or\n",
  "982": "feel",
  "983": "mer",
  "984": "will",
  "985": "val",
  "986": "fi",
  "987": "muchĠ",
  "988": "gn",
  "989": "it\n",
  "990": "ĠthatĠtheĠ",
  "991": "term",
  "992": "ementĠ",
  "993": "sid",
  "994": "pa",
  "995": "ward",
  "996": ".\n\n[Sidenote:Ġ",
  "997": "syst",
  "998": "high",
  "999": "rea",
  "1000": "method",
  "1001": ".ĠInĠ",
  "1002": "exp",
  "1003": "actĠ",
  "1004": ".ĠIfĠ",
  "1005": "individ",
  "1006": "one",
  "1007": "ty",
  "1008": "manyĠ",
  "1009": "ProjectĠGutenberg™",
  "1010": "wayĠ",
  "1011": "hasĠbeenĠ",
  "1012": "mo",
  "1013": "bod",
  "1014": "trib",
  "1015": "law",
  "1016": "materi",
  "1017": "gl",
  "1018": "certainĠ",
  "1019": "idĠ",
  "1020": "practic",
  "1021": "probl",
  "1022": "lat",
  "1023": "lit",
  "1024": "chi",
  "1025": "sĠinĠ",
  "1026": "shouldĠbeĠ",
  "1027": "hav",
  "1028": "top",
  "1029": "av",
  "1030": "dem",
  "1031": "element",
  "1032": ".ĠIĠ",
  "1033": "ulti",
  "1034": "possibleĠ",
  "1035": "dist",
  "1036": "someth",
  "1037": "eĠandĠ",
  "1038": "oundĠ",
  "1039": "cap",
  "1040": "liv",
  "1041": "TH",
  "1042": "humanĠ",
  "1043": "ativeĠ",
  "1044": "sim",
  "1045": "stand",
  "1046": "ly",
  "1047": "expres",
  "1048": "whereĠ",
  "1049": "acqu",
  "1050": "phys",
  "1051": "mod",
  "1052": "arr",
  "1053": "opl",
  "1054": "vari",
  "1055": "parent",
  "1056": "are\n",
  "1057": "te",
  "1058": "ghtĠ",
  "1059": "goodĠ",
  "1060": "Ġthink",
  "1061": "larg",
  "1062": "not\n",
  "1063": "pur",
  "1064": "own",
  "1065": "whichĠtheĠ",
  "1066": "Un",
  "1067": "EĠ",
  "1068": "proc",
  "1069": "twoĠ",
  "1070": "present",
  "1071": "ticul",
  "1072": "au",
  "1073": "tis",
  "1074": "vol",
  "1075": "ityĠofĠ",
  "1076": ".ĠWeĠ",
  "1077": "condi",
  "1078": "ellĠ",
  "1079": "shallĠ",
  "1080": "equ",
  "1081": "ster",
  "1082": "reli",
  "1083": ";\n",
  "1084": "char",
  "1085": "ulĠ",
  "1086": "ialĠ",
  "1087": "partĠ",
  "1088": "valu",
  "1089": "by\n",
  "1090": "sĠareĠ",
  "1091": "res",
  "1092": "farĠ",
  "1093": "old",
  "1094": "posi",
  "1095": "_,Ġ",
  "1096": "hab",
  "1097": "nature",
  "1098": "cor",
  "1099": "peopl",
  "1100": "beg",
  "1101": "heĠisĠ",
  "1102": "observ",
  "1103": "tern",
  "1104": "stat",
  "1105": "atĠtheĠ",
  "1106": "esĠtheĠ",
  "1107": "\n\n\n",
  "1108": "ĠtheseĠ",
  "1109": "forc",
  "1110": "itselfĠ",
  "1111": "sign",
  "1112": "which\n",
  "1113": "ke",
  "1114": "org",
  "1115": "alsoĠ",
  "1116": "her",
  "1117": "tur",
  "1118": "--------",
  "1119": "diffic",
  "1120": "particul",
  "1121": "nes",
  "1122": "istor",
  "1123": "his\n",
  "1124": "dep",
  "1125": "thatĠtheĠ",
  "1126": "tain",
  "1127": "ollow",
  "1128": "omĠ",
  "1129": "wr",
  "1130": "examin",
  "1131": "aim",
  "1132": "couldĠ",
  "1133": "ĠthemĠ",
  "1134": "beforeĠ",
  "1135": "eff",
  "1136": "follow",
  "1137": "ence,Ġ",
  "1138": "natureĠ",
  "1139": "call",
  "1140": "neverĠ",
  "1141": "he",
  "1142": "realis",
  "1143": "ins",
  "1144": "upĠ",
  "1145": "defin",
  "1146": "reason",
  "1147": "ific",
  "1148": "esĠandĠ",
  "1149": "it,Ġ",
  "1150": ".ĠItĠisĠ",
  "1151": "ingĠandĠ",
  "1152": "le",
  "1153": "edĠandĠ",
  "1154": "mustĠbeĠ",
  "1155": "tre",
  "1156": "st\n",
  "1157": "themĠ",
  "1158": "ly\n",
  "1159": "takeĠ",
  "1160": "doĠnotĠ",
  "1161": "ĠthanĠ",
  "1162": "suc",
  "1163": "prin",
  "1164": "Ch",
  "1165": "alway",
  "1166": "ionĠ",
  "1167": "growth",
  "1168": "newĠ",
  "1169": "tĠtoĠ",
  "1170": "emp",
  "1171": "greatĠ",
  "1172": "cent",
  "1173": "yĠtoĠ",
  "1174": "1.",
  "1175": "thanĠ",
  "1176": "givenĠ",
  "1177": "rightĠ",
  "1178": "Wh",
  "1179": ",\"Ġ",
  "1180": "desir",
  "1181": "respon",
  "1182": "plic",
  "1183": "histor",
  "1184": "religi",
  "1185": "giveĠ",
  "1186": "coun",
  "1187": "erĠofĠ",
  "1188": "isĠtoĠ",
  "1189": "naturalĠ",
  "1190": "al,Ġ",
  "1191": "lim",
  "1192": "cult",
  "1193": "olog",
  "1194": "sens",
  "1195": "imag",
  "1196": "ĠĠĠ",
  "1197": "roughĠ",
  "1198": "sĠofĠtheĠ",
  "1199": "ew",
  "1200": "yĠandĠ",
  "1201": "less",
  "1202": "hand",
  "1203": "lo",
  "1204": "ilos",
  "1205": "ilosop",
  "1206": ";ĠbutĠ",
  "1207": "’sĠ",
  "1208": "selvesĠ",
  "1209": "inform",
  "1210": "madeĠ",
  "1211": "happ",
  "1212": "sum",
  "1213": "nor",
  "1214": "intellectualĠ",
  "1215": "entlyĠ",
  "1216": "ainĠ",
  "1217": "say",
  "1218": "(_",
  "1219": "In",
  "1220": "myĠ",
  "1221": "ought",
  "1222": "whatĠisĠ",
  "1223": "principl",
  "1224": "ookĠ",
  "1225": "for\n",
  "1226": "endĠ",
  "1227": "canĠbeĠ",
  "1228": "fear",
  "1229": ".ĠAndĠ",
  "1230": "think",
  "1231": "main",
  "1232": "tingĠ",
  "1233": "vir",
  "1234": "wholeĠ",
  "1235": "by",
  "1236": "philosop",
  "1237": "agre",
  "1238": "disc",
  "1239": "requ",
  "1240": "timeĠ",
  "1241": "rath",
  "1242": "enceĠofĠ",
  "1243": "\nofĠ",
  "1244": "mindĠ",
  "1245": "angu",
  "1246": "rough",
  "1247": "system",
  "1248": "asp",
  "1249": "of\ntheĠ",
  "1250": "whil",
  "1251": "grad",
  "1252": "d,Ġ",
  "1253": "inĠthe\n",
  "1254": "stil",
  "1255": "discipl",
  "1256": "conscious",
  "1257": "intoĠtheĠ",
  "1258": "belief",
  "1259": "itiesĠ",
  "1260": ".ĠHeĠ",
  "1261": "mov",
  "1262": "elli",
  "1263": "whichĠweĠ",
  "1264": "trans",
  "1265": "moralĠ",
  "1266": "IN",
  "1267": "again",
  "1268": "tribut",
  "1269": "s,\n",
  "1270": "aph",
  "1271": "iedĠ",
  "1272": "titud",
  "1273": "interest",
  "1274": "knowledgeĠ",
  "1275": "tenĠ",
  "1276": ".ĠForĠ",
  "1277": "refl",
  "1278": "ProjectĠGutenberg™Ġ",
  "1279": "hel",
  "1280": "need",
  "1281": ".\n\nTheĠ",
  "1282": "infl",
  "1283": "oldĠ",
  "1284": "willĠbeĠ",
  "1285": "tooĠ",
  "1286": "mightĠ",
  "1287": "intelli",
  "1288": "ark",
  "1289": "spiritualĠ",
  "1290": "clus",
  "1291": "tlyĠ",
  "1292": "object",
  "1293": "elec",
  "1294": "problem",
  "1295": "ĠthoseĠ",
  "1296": "becomeĠ",
  "1297": "edĠtheĠ",
  "1298": "betweenĠ",
  "1299": "allĠtheĠ",
  "1300": "electr",
  "1301": "presentĠ",
  "1302": "contro",
  "1303": ".ĠAĠ",
  "1304": "entific",
  "1305": "odĠ",
  "1306": "differentĠ",
  "1307": "iveĠ",
  "1308": "adv",
  "1309": "erĠtoĠ",
  "1310": ".ĠN",
  "1311": "ideaĠ",
  "1312": "sym",
  "1313": "hear",
  "1314": "AN",
  "1315": "excep",
  "1316": "ivers",
  "1317": "nowĠ",
  "1318": "its\n",
  "1319": "]Ġ",
  "1320": "children",
  "1321": "doesĠnotĠ",
  "1322": ".ĠE",
  "1323": "poin",
  "1324": "abstr",
  "1325": "\n\nĠĠ",
  "1326": ".ĠM",
  "1327": "istĠ",
  "1328": "ofĠaĠ",
  "1329": "conv",
  "1330": "instruc",
  "1331": "”Ġ",
  "1332": "matter",
  "1333": "spea",
  "1334": "alwaysĠ",
  "1335": "bas",
  "1336": "worldĠ",
  "1337": "fulĠ",
  "1338": "tau",
  "1339": "chan",
  "1340": "uallyĠ",
  "1341": "personal",
  "1342": "Utop",
  "1343": "Utopi",
  "1344": "log",
  "1345": "ER",
  "1346": "oung",
  "1347": "udg",
  "1348": "ableĠtoĠ",
  "1349": "socialĠ",
  "1350": "langu",
  "1351": ",ĠasĠ",
  "1352": "likeĠ",
  "1353": "num",
  "1354": "er\n",
  "1355": "littl",
  "1356": ",ĠinĠ",
  "1357": "app",
  "1358": "clud",
  "1359": ",ĠorĠ",
  "1360": "somethingĠ",
  "1361": "class",
  "1362": "provid",
  "1363": "astĠ",
  "1364": "philosoph",
  "1365": "seeĠ",
  "1366": "both",
  "1367": "trad",
  "1368": "organ",
  "1369": "menĠ",
  "1370": "chang",
  "1371": "ectionĠ",
  "1372": "thor",
  "1373": "wellĠ",
  "1374": "ectiveĠ",
  "1375": "ButĠ",
  "1376": "physicalĠ",
  "1377": "regard",
  "1378": "wouldĠbeĠ",
  "1379": "purpos",
  "1380": "unc",
  "1381": "tyĠ",
  "1382": "fam",
  "1383": "ingĠaĠ",
  "1384": "any",
  "1385": "possibl",
  "1386": "ereĠareĠ",
  "1387": "jo",
  "1388": "ON",
  "1389": "young",
  "1390": "ackĠ",
  "1391": "factĠ",
  "1392": "influ",
  "1393": "arm",
  "1394": "tal",
  "1395": "longĠ",
  "1396": "readyĠ",
  "1397": "eĠofĠtheĠ",
  "1398": ",Ġthe\n",
  "1399": "kind",
  "1400": ",ĠtoĠ",
  "1401": "ingĠthatĠ",
  "1402": "elementaryĠ",
  "1403": "growthĠ",
  "1404": "electron",
  "1405": "pleas",
  "1406": "mentalĠ",
  "1407": "imagin",
  "1408": "fail",
  "1409": "sugges",
  "1410": "haveĠbeenĠ",
  "1411": "intellig",
  "1412": "sequ",
  "1413": "path",
  "1414": "ings",
  "1415": "itedĠ",
  "1416": "atesĠ",
  "1417": "effor",
  "1418": "justĠ",
  "1419": "generalĠ",
  "1420": "allow",
  "1421": "ature",
  "1422": "co",
  "1423": "sk",
  "1424": "ativ",
  "1425": "himselfĠ",
  "1426": "ĠO",
  "1427": "ustr",
  "1428": "ge",
  "1429": "pec",
  "1430": "fur",
  "1431": "eĠthatĠ",
  "1432": "with\n",
  "1433": "er,Ġ",
  "1434": "contin",
  "1435": "good",
  "1436": "ishĠ",
  "1437": "o\n",
  "1438": "St",
  "1439": "fici",
  "1440": "succ",
  "1441": "orig",
  "1442": "find",
  "1443": "rul",
  "1444": "sor",
  "1445": "ordin",
  "1446": "don",
  "1447": "ouslyĠ",
  "1448": "commun",
  "1449": "ticalĠ",
  "1450": "medi",
  "1451": "toĠthe\n",
  "1452": "ll",
  "1453": ",ĠtheyĠ",
  "1454": "thereforeĠ",
  "1455": "etherĠ",
  "1456": "require",
  "1457": "itherĠ",
  "1458": "siveĠ",
  "1459": "ir\n",
  "1460": "y,ĠandĠ",
  "1461": "spiritĠ",
  "1462": "accep",
  "1463": "subjectĠ",
  "1464": "electronicĠ",
  "1465": "prof",
  "1466": "heĠhasĠ",
  "1467": "weĠhaveĠ",
  "1468": "del",
  "1469": "yetĠ",
  "1470": "sch",
  "1471": "ca",
  "1472": "objectĠ",
  "1473": "sinc",
  "1474": "e.\n\n",
  "1475": "setĠ",
  "1476": "leĠ",
  "1477": "howĠ",
  "1478": "particularĠ",
  "1479": "_)Ġ",
  "1480": "ness",
  "1481": "complet",
  "1482": "bet",
  "1483": "tionalĠ",
  "1484": "edĠasĠ",
  "1485": "typ",
  "1486": "meaningĠ",
  "1487": "extern",
  "1488": "clear",
  "1489": "writ",
  "1490": "show",
  "1491": "anim",
  "1492": "gu",
  "1493": "titut",
  "1494": "formĠ",
  "1495": "notĠbeĠ",
  "1496": "ont",
  "1497": "inkĠ",
  "1498": "stillĠ",
  "1499": ",Ġ1",
  "1500": "ThisĠ",
  "1501": "almostĠ",
  "1502": "EN",
  "1503": "lik",
  "1504": "view",
  "1505": "comeĠ",
  "1506": "on\n",
  "1507": "ut\n",
  "1508": "peopleĠ",
  "1509": "truth",
  "1510": "day",
  "1511": "developmentĠ",
  "1512": "suf",
  "1513": "sĠwhichĠ",
  "1514": "judg",
  "1515": "dĠtoĠ",
  "1516": "when",
  "1517": "matterĠ",
  "1518": "every",
  "1519": "scientific",
  "1520": "senseĠ",
  "1521": "life,Ġ",
  "1522": "inĠthisĠ",
  "1523": "continu",
  "1524": "ship",
  "1525": "qual",
  "1526": "edĠbyĠtheĠ",
  "1527": "ogn",
  "1528": "ersĠ",
  "1529": "book",
  "1530": "Ġthat\n",
  "1531": ",\nandĠ",
  "1532": "inĠwhichĠ",
  "1533": "wa",
  "1534": "ens",
  "1535": "FĠ",
  "1536": "charac",
  "1537": "character",
  "1538": "that\n",
  "1539": "doneĠ",
  "1540": "esĠtoĠ",
  "1541": "termin",
  "1542": ".ĠThe",
  "1543": "eng",
  "1544": ",ĠwhichĠ",
  "1545": "alth",
  "1546": "perhap",
  "1547": "he\n",
  "1548": "variousĠ",
  "1549": "copy",
  "1550": "CH",
  "1551": "invol",
  "1552": "tu",
  "1553": "bil",
  "1554": "hisĠownĠ",
  "1555": "origin",
  "1556": "Found",
  "1557": "ies",
  "1558": "inĠitsĠ",
  "1559": "we\n",
  "1560": "cul",
  "1561": "draw",
  "1562": "famil",
  "1563": "evil",
  "1564": "seem",
  "1565": ".ĠToĠ",
  "1566": "ated",
  "1567": "ould\n",
  "1568": "atingĠ",
  "1569": "ItĠ",
  "1570": "alreadyĠ",
  "1571": "play",
  "1572": "material",
  "1573": "e.ĠTheĠ",
  "1574": "dec",
  "1575": "we",
  "1576": "theseĠ",
  "1577": "answ",
  "1578": "du",
  "1579": "poss",
  "1580": "freed",
  "1581": "thingsĠ",
  "1582": "ectiv",
  "1583": "toward",
  "1584": "conce",
  "1585": "educationalĠ",
  "1586": "edĠwithĠ",
  "1587": "eĠisĠ",
  "1588": "eveĠ",
  "1589": "cours",
  "1590": "imp",
  "1591": "En",
  "1592": "eĠaĠ",
  "1593": "tendenc",
  "1594": "ts",
  "1595": "mem",
  "1596": "tions",
  "1597": "distinc",
  "1598": "mom",
  "1599": ",ĠisĠ",
  "1600": "order",
  "1601": "countr",
  "1602": "ofĠtheirĠ",
  "1603": "however",
  "1604": "curr",
  "1605": "therĠ",
  "1606": "attitud",
  "1607": "exer",
  "1608": "inqu",
  "1609": "faculti",
  "1610": "overĠ",
  "1611": "anotherĠ",
  "1612": "world",
  "1613": "littleĠ",
  "1614": "some",
  "1615": "tol",
  "1616": "stor",
  "1617": "needĠ",
  "1618": "inn",
  "1619": "vit",
  "1620": "ead",
  "1621": ".ĠC",
  "1622": "bestĠ",
  "1623": "fo",
  "1624": "herĠ",
  "1625": "RE",
  "1626": "TI",
  "1627": "DĠ",
  "1628": "gres",
  "1629": "abil",
  "1630": "Engl",
  "1631": "ack",
  "1632": "great",
  "1633": "ere\n",
  "1634": "ous\n",
  "1635": "goĠ",
  "1636": ".ĠThe\n",
  "1637": "att",
  "1638": "mereĠ",
  "1639": "makesĠ",
  "1640": "timul",
  "1641": "sc",
  "1642": "Man",
  "1643": "nothingĠ",
  "1644": "conclus",
  "1645": "thereĠisĠ",
  "1646": "ĠthoughtĠ",
  "1647": "andĠthatĠ",
  "1648": "interestĠ",
  "1649": "realityĠ",
  "1650": ".\"Ġ",
  "1651": "II",
  "1652": "individual",
  "1653": "age",
  "1654": "toĠaĠ",
  "1655": "importantĠ",
  "1656": "prom",
  "1657": "illĠ",
  "1658": "pĠ",
  "1659": "stimul",
  "1660": "bor",
  "1661": "power",
  "1662": "encesĠ",
  "1663": "what",
  "1664": "Ar",
  "1665": "iousĠ",
  "1666": "assum",
  "1667": "exampl",
  "1668": "care",
  "1669": "ane",
  "1670": "wish",
  "1671": "ance",
  "1672": "ine",
  "1673": "takenĠ",
  "1674": "ĠĠĠĠĠĠĠĠĠĠĠĠĠĠĠĠĠĠĠĠĠĠĠĠĠĠĠĠĠĠĠĠ",
  "1675": "necessaryĠ",
  "1676": "asĠtoĠ",
  "1677": "taughtĠ",
  "1678": "yingĠ",
  "1679": "An",
  "1680": "all\n",
  "1681": "bu",
  "1682": "sĠaĠ",
  "1683": "THEĠ",
  "1684": "author",
  "1685": "againstĠ",
  "1686": "involv",
  "1687": "oftenĠ",
  "1688": "amĠ",
  "1689": "gen",
  "1690": "individualĠ",
  "1691": "mechan",
  "1692": "connec",
  "1693": "ond",
  "1694": "ĠthingsĠ",
  "1695": ".ĠIf",
  "1696": "ings,Ġ",
  "1697": "firm",
  "1698": "expl",
  "1699": "ĠOFĠ",
  "1700": "adĠ",
  "1701": "tionĠofĠtheĠ",
  "1702": "carr",
  "1703": "sl",
  "1704": "itsĠownĠ",
  "1705": "ationĠofĠtheĠ",
  "1706": "ismĠ",
  "1707": "ceĠ",
  "1708": "famili",
  "1709": "ww",
  "1710": "areĠnotĠ",
  "1711": "artĠ",
  "1712": "InĠ",
  "1713": "point",
  "1714": "has\n",
  "1715": "well",
  "1716": "pol",
  "1717": "moder",
  "1718": "kin",
  "1719": "becomesĠ",
  "1720": "ent\n",
  "1721": ".ĠOn",
  "1722": "ection",
  "1723": "sit",
  "1724": "Ġf",
  "1725": "percep",
  "1726": "understand",
  "1727": "1.E",
  "1728": "boy",
  "1729": "hop",
  "1730": "ally\n",
  "1731": "plyĠ",
  "1732": "appear",
  "1733": "whileĠ",
  "1734": "pass",
  "1735": "ask",
  "1736": "satis",
  "1737": "determin",
  "1738": "univers",
  "1739": "keep",
  "1740": "empl",
  "1741": "progres",
  "1742": "y-",
  "1743": "nam",
  "1744": "essĠofĠ",
  "1745": "s,ĠtheĠ",
  "1746": "anal",
  "1747": "deta",
  "1748": "from\n",
  "1749": "iment",
  "1750": ".ĠD",
  "1751": "thoughtĠ",
  "1752": "atten",
  "1753": "ator",
  "1754": "knowĠ",
  "1755": "tra",
  "1756": "eitherĠ",
  "1757": "recogn",
  "1758": "achi",
  "1759": "pas",
  "1760": "turn",
  "1761": "ness,Ġ",
  "1762": "merelyĠ",
  "1763": "foundĠ",
  "1764": "orĠtheĠ",
  "1765": "appl",
  "1766": "idealĠ",
  "1767": "concer",
  "1768": "ly,Ġ",
  "1769": "suppos",
  "1770": "ick",
  "1771": "afterĠ",
  "1772": "informationĠ",
  "1773": "includ",
  "1774": "TĠ",
  "1775": "eĠforĠ",
  "1776": "ablyĠ",
  "1777": "bothĠ",
  "1778": "epar",
  "1779": "master",
  "1780": "soul",
  "1781": "cup",
  "1782": "1.E.",
  "1783": "theyĠareĠ",
  "1784": "necessar",
  "1785": "in\ntheĠ",
  "1786": "findĠ",
  "1787": "quiteĠ",
  "1788": "our\n",
  "1789": "pun",
  "1790": "infer",
  "1791": "fullĠ",
  "1792": "ceas",
  "1793": "accoun",
  "1794": "proper",
  "1795": "speak",
  "1796": "obedi",
  "1797": "bus",
  "1798": "ligh",
  "1799": "ofĠhisĠ",
  "1800": "cri",
  "1801": "lin",
  "1802": "thereĠ",
  "1803": "desire",
  "1804": "numb",
  "1805": "ext",
  "1806": "virtu",
  "1807": "s.ĠTheĠ",
  "1808": "my",
  "1809": "trueĠ",
  "1810": "isticĠ",
  "1811": "construc",
  "1812": "suggest",
  "1813": "aff",
  "1814": "rece",
  "1815": "graph",
  "1816": "question",
  "1817": "ess,Ġ",
  "1818": "withĠaĠ",
  "1819": "dom",
  "1820": "practicalĠ",
  "1821": "ation\n",
  "1822": "concre",
  "1823": "punish",
  "1824": "inde",
  "1825": "atelyĠ",
  "1826": "consequ",
  "1827": "func",
  "1828": "ĠĠĠĠĠĠĠ",
  "1829": ".ĠL",
  "1830": ",ĠitĠ",
  "1831": ".ĠWhatĠ",
  "1832": "other\n",
  "1833": "oub",
  "1834": ",ĠaĠ",
  "1835": "chn",
  "1836": "realĠ",
  "1837": "tabl",
  "1838": "health",
  "1839": ";ĠtheĠ",
  "1840": "evid",
  "1841": "out\n",
  "1842": "habitsĠ",
  "1843": "cis",
  "1844": "agr",
  "1845": "const",
  "1846": "sou",
  "1847": "distribut",
  "1848": "electronicĠwork",
  "1849": "inĠhisĠ",
  "1850": "IĠhaveĠ",
  "1851": "scienceĠ",
  "1852": "meĠ",
  "1853": "vis",
  "1854": "signific",
  "1855": "coll",
  "1856": "appe",
  "1857": "soulĠ",
  "1858": "fus",
  "1859": "believeĠ",
  "1860": "interpre",
  "1861": "hy",
  "1862": "termsĠ",
  "1863": "uponĠtheĠ",
  "1864": "ical\n",
  "1865": "Ġtheir\n",
  "1866": "ve",
  "1867": "dayĠ",
  "1868": "relyĠ",
  "1869": "inquir",
  "1870": "forĠaĠ",
  "1871": "loveĠ",
  "1872": "step",
  "1873": "farĠasĠ",
  "1874": "redĠ",
  "1875": "rather",
  "1876": "techn",
  "1877": ".ĠInĠtheĠ",
  "1878": "accord",
  "1879": "bey",
  "1880": ".ĠTheyĠ",
  "1881": "s;Ġ",
  "1882": "sing",
  "1883": "School",
  "1884": "adm",
  "1885": "s.\n\n",
  "1886": "super",
  "1887": "occup",
  "1888": "perf",
  "1889": "thenĠ",
  "1890": "ĠL",
  "1891": "e,ĠbutĠ",
  "1892": "icallyĠ",
  "1893": "ideal",
  "1894": "ofĠtheseĠ",
  "1895": "ultĠ",
  "1896": "bro",
  "1897": "activityĠ",
  "1898": "getĠ",
  "1899": "externalĠ",
  "1900": "oper",
  "1901": "freeĠ",
  "1902": "culture",
  "1903": "obvi",
  "1904": "look",
  "1905": "wardĠ",
  "1906": ",ĠifĠ",
  "1907": "will\n",
  "1908": "playĠ",
  "1909": "eav",
  "1910": "such",
  "1911": "yĠofĠtheĠ",
  "1912": "conduc",
  "1913": "long",
  "1914": "have\n",
  "1915": "sm",
  "1916": "meas",
  "1917": "get",
  "1918": "simpl",
  "1919": "mark",
  "1920": "wat",
  "1921": "difficult",
  "1922": "ris",
  "1923": "whichĠtheyĠ",
  "1924": "cultureĠ",
  "1925": ".ĠP",
  "1926": "depend",
  "1927": "s\nofĠ",
  "1928": "usef",
  "1929": "e,\n",
  "1930": "e;Ġ",
  "1931": "attemp",
  "1932": ",ĠnotĠ",
  "1933": "meansĠ",
  "1934": "prob",
  "1935": "ual\n",
  "1936": "----------------",
  "1937": "ondĠ",
  "1938": "lead",
  "1939": "ood",
  "1940": "exceptĠ",
  "1941": "yearsĠ",
  "1942": "aris",
  "1943": "specialĠ",
  "1944": "reallyĠ",
  "1945": "perhapsĠ",
  "1946": ".ĠWhenĠ",
  "1947": "underĠ",
  "1948": "wordĠ",
  "1949": "ĠinĠ",
  "1950": "experienceĠ",
  "1951": "abor",
  "1952": "meaning",
  "1953": "enseĠ",
  "1954": "ubl",
  "1955": "wid",
  "1956": "earlyĠ",
  "1957": "ally",
  "1958": "personĠ",
  "1959": "reach",
  "1960": "not",
  "1961": "ight",
  "1962": "but\n",
  "1963": "ey",
  "1964": ",ĠweĠ",
  "1965": "e,ĠtheĠ",
  "1966": "edĠinĠtheĠ",
  "1967": "detail",
  "1968": "so\n",
  "1969": ".Ġ_",
  "1970": "ingu",
  "1971": "oy",
  "1972": "capac",
  "1973": "concern",
  "1974": "ely",
  "1975": "pri",
  "1976": "inĠtheirĠ",
  "1977": "ourc",
  "1978": "ict",
  "1979": "test",
  "1980": "harm",
  "1981": "commonĠ",
  "1982": "tom",
  "1983": "child'sĠ",
  "1984": "useĠofĠ",
  "1985": ".ĠY",
  "1986": "AR",
  "1987": "youngĠ",
  "1988": "gir",
  "1989": "schoolsĠ",
  "1990": "err",
  "1991": "suchĠaĠ",
  "1992": "conn",
  "1993": "itĠwasĠ",
  "1994": "ical",
  "1995": "00",
  "1996": "eĠinĠ",
  "1997": "sal",
  "1998": "ail",
  "1999": "courseĠ",
  "2000": "whichĠheĠ",
  "2001": "tionĠisĠ",
  "2002": "one\n",
  "2003": "ri",
  "2004": "entsĠ",
  "2005": "appre",
  "2006": "resultsĠ",
  "2007": "turnĠ",
  "2008": "xĠ",
  "2009": "ationĠandĠ",
  "2010": "edĠthatĠ",
  "2011": "degre",
  "2012": "spont",
  "2013": "spontane",
  "2014": "constitut",
  "2015": "selves",
  "2016": "roughĠtheĠ",
  "2017": "demand",
  "2018": "div",
  "2019": ";\nĠĠĠĠ",
  "2020": "sayĠ",
  "2021": "exc",
  "2022": "atĠl",
  "2023": "ely\n",
  "2024": "andĠthereforeĠ",
  "2025": "appro",
  "2026": "associ",
  "2027": "aĠth",
  "2028": "putĠ",
  "2029": "art",
  "2030": "situ",
  "2031": "toĠth",
  "2032": "graduallyĠ",
  "2033": "conceiv",
  "2034": "eB",
  "2035": "ate\n",
  "2036": "increas",
  "2037": "ignor",
  "2038": "esĠareĠ",
  "2039": "atic",
  "2040": "being",
  "2041": "mainĠ",
  "2042": "another",
  "2043": "weĠareĠ",
  "2044": "tog",
  "2045": "ectedĠ",
  "2046": "--theĠ",
  "2047": "anci",
  "2048": "conditionsĠ",
  "2049": "ograph",
  "2050": "been\n",
  "2051": ",Ġand\n",
  "2052": "see",
  "2053": "doub",
  "2054": "da",
  "2055": "ingĠisĠ",
  "2056": "materialĠ",
  "2057": "imin",
  "2058": "norm",
  "2059": "iesĠofĠ",
  "2060": "senseĠofĠ",
  "2061": "lov",
  "2062": "copyrightĠ",
  "2063": "ore",
  "2064": "sych",
  "2065": "whetherĠ",
  "2066": "lesson",
  "2067": "readĠ",
  "2068": "scientificĠ",
  "2069": "orderĠtoĠ",
  "2070": "tion\n",
  "2071": "den",
  "2072": "whenĠtheĠ",
  "2073": "---",
  "2074": "//",
  "2075": "hom",
  "2076": "boyĠ",
  "2077": "itĠhasĠ",
  "2078": "remain",
  "2079": "discover",
  "2080": "deal",
  "2081": "furtherĠ",
  "2082": "ity\n",
  "2083": "elĠ",
  "2084": "applic",
  "2085": "reasonĠ",
  "2086": "correc",
  "2087": "resultĠ",
  "2088": "calledĠ",
  "2089": "liter",
  "2090": "impul",
  "2091": "restĠ",
  "2092": "freedom",
  "2093": "ĠisĠ",
  "2094": "pointĠofĠ",
  "2095": "experiment",
  "2096": "refer",
  "2097": "es,ĠandĠ",
  "2098": "fullyĠ",
  "2099": "erĠandĠ",
  "2100": "success",
  "2101": "whoseĠ",
  "2102": "fewĠ",
  "2103": "blyĠ",
  "2104": "separ",
  "2105": "sto",
  "2106": "ial",
  "2107": ".\nTheĠ",
  "2108": "even",
  "2109": "backĠ",
  "2110": "atureĠ",
  "2111": "laterĠ",
  "2112": "new",
  "2113": "human",
  "2114": "ĠthroughĠ",
  "2115": "AĠ",
  "2116": "inf",
  "2117": "ideasĠ",
  "2118": "la",
  "2119": "yĠisĠ",
  "2120": "limit",
  "2121": "tĠandĠ",
  "2122": "yourĠ",
  "2123": "busin",
  "2124": "condition",
  "2125": "examinationĠ",
  "2126": "ouĠ",
  "2127": "underĠtheĠ",
  "2128": "loc",
  "2129": "TION",
  "2130": "isol",
  "2131": "conclusion",
  "2132": "men",
  "2133": "education,Ġ",
  "2134": "dest",
  "2135": "simplyĠ",
  "2136": "reeĠ",
  "2137": "inv",
  "2138": "children,Ġ",
  "2139": "abstractĠ",
  "2140": "ought,Ġ",
  "2141": "prim",
  "2142": "ofĠthatĠ",
  "2143": "sĠinĠtheĠ",
  "2144": "Project",
  "2145": "indic",
  "2146": "ĠĠĠĠĠĠ",
  "2147": "SĠ",
  "2148": "to\ntheĠ",
  "2149": "tĠtheĠ",
  "2150": "sycholog",
  "2151": "anceĠofĠ",
  "2152": "erefor",
  "2153": "higherĠ",
  "2154": "low",
  "2155": "clas",
  "2156": "trainingĠ",
  "2157": ",ĠthereĠisĠ",
  "2158": "ios",
  "2159": "found",
  "2160": "usu",
  "2161": "norĠ",
  "2162": "cannotĠbeĠ",
  "2163": "process",
  "2164": "outĠofĠ",
  "2165": "relation",
  "2166": "leg",
  "2167": "Project\n",
  "2168": "ary\n",
  "2169": "ament",
  "2170": "modernĠ",
  "2171": "ed,ĠandĠ",
  "2172": "e\nofĠ",
  "2173": "oneĠofĠtheĠ",
  "2174": "ivil",
  "2175": "itĠis\n",
  "2176": "mann",
  "2177": "ati",
  "2178": "perĠ",
  "2179": "ess\n",
  "2180": "adequ",
  "2181": "achiev",
  "2182": "\nandĠ",
  "2183": "himĠtoĠ",
  "2184": "religiousĠ",
  "2185": "standĠ",
  "2186": "roduc",
  "2187": "callĠ",
  "2188": "iter",
  "2189": "---+",
  "2190": "OR",
  "2191": "parentsĠ",
  "2192": "\ntoĠ",
  "2193": "learnĠ",
  "2194": "ĠthereforeĠ",
  "2195": "aĠcertainĠ",
  "2196": "Ġthis\n",
  "2197": "acquire",
  "2198": "than",
  "2199": "personalĠ",
  "2200": "energ",
  "2201": "languageĠ",
  "2202": "particular",
  "2203": "havingĠ",
  "2204": "consciousĠ",
  "2205": "enter",
  "2206": "shor",
  "2207": "withinĠ",
  "2208": ",ĠheĠ",
  "2209": "doc",
  "2210": "logicalĠ",
  "2211": "formul",
  "2212": "es,\n",
  "2213": "ĠtheyĠareĠ",
  "2214": ".ĠAsĠ",
  "2215": "outl",
  "2216": "possibil",
  "2217": "systemĠ",
  "2218": "problemĠ",
  "2219": "fut",
  "2220": "ifĠtheĠ",
  "2221": "isĠthatĠ",
  "2222": ".ĠThereĠisĠ",
  "2223": "aver",
  "2224": "concret",
  "2225": "ageĠofĠ",
  "2226": "mon",
  "2227": "uli",
  "2228": "whichĠitĠ",
  "2229": "perform",
  "2230": "lifeĠofĠtheĠ",
  "2231": ",ĠandĠtheĠ",
  "2232": "badĠ",
  "2233": "itĠisĠnotĠ",
  "2234": "Ġthan",
  "2235": "arti",
  "2236": "ations",
  "2237": "jus",
  "2238": "suppl",
  "2239": "buil",
  "2240": "at,Ġ",
  "2241": "dang",
  "2242": "sĠasĠ",
  "2243": "nation",
  "2244": "WeĠ",
  "2245": "throughĠ",
  "2246": "paragr",
  "2247": "paragraph",
  "2248": "themselvesĠ",
  "2249": "represent",
  "2250": "OU",
  "2251": "essenti",
  "2252": "ped",
  "2253": "momentĠ",
  "2254": "ession",
  "2255": "cir",
  "2256": "conceptionĠofĠ",
  "2257": "mus",
  "2258": "tionĠandĠ",
  "2259": "oneĠofĠ",
  "2260": "fix",
  "2261": "phas",
  "2262": "evol",
  "2263": "thoseĠ",
  "2264": "grou",
  "2265": "centr",
  "2266": "letĠ",
  "2267": "accur",
  "2268": "sĠof\n",
  "2269": "caus",
  "2270": "thought",
  "2271": "IĠamĠ",
  "2272": "distingu",
  "2273": "eg",
  "2274": "nur",
  "2275": "ratherĠthanĠ",
  "2276": "ewĠ",
  "2277": "Gre",
  "2278": "sha",
  "2279": "esĠofĠtheĠ",
  "2280": "[1",
  "2281": "hard",
  "2282": "viron",
  "2283": "eĠof\n",
  "2284": "whatĠheĠ",
  "2285": "powerĠ",
  "2286": "st,Ġ",
  "2287": "(orĠ",
  "2288": "receiv",
  "2289": "ERĠ",
  "2290": "fund",
  "2291": "unityĠ",
  "2292": "formĠofĠ",
  "2293": "betterĠ",
  "2294": "inĠanyĠ",
  "2295": ".ĠButĠtheĠ",
  "2296": "certain",
  "2297": "pointĠ",
  "2298": ".\n\nButĠ",
  "2299": "animal",
  "2300": "strong",
  "2301": "esĠinĠ",
  "2302": "consist",
  "2303": "toĠthisĠ",
  "2304": "instea",
  "2305": "God",
  "2306": "vic",
  "2307": "environ",
  "2308": "othersĠ",
  "2309": "tribu",
  "2310": "basisĠ",
  "2311": "ordinaryĠ",
  "2312": "ationĠisĠ",
  "2313": "ANDĠ",
  "2314": "any\n",
  "2315": "after",
  "2316": "oppos",
  "2317": "wom",
  "2318": "ts,Ġ",
  "2319": "y,\n",
  "2320": "prev",
  "2321": "conven",
  "2322": "unlessĠ",
  "2323": "toĠdoĠ",
  "2324": "ities",
  "2325": "whichĠareĠ",
  "2326": "age,Ġ",
  "2327": "andĠthe\n",
  "2328": "spect",
  "2329": "childĠisĠ",
  "2330": "transform",
  "2331": "questionĠ",
  "2332": "peculi",
  "2333": "development",
  "2334": "induc",
  "2335": ".ĠAnd",
  "2336": "salv",
  "2337": "asĠwellĠ",
  "2338": "factor",
  "2339": "regardĠ",
  "2340": "outsid",
  "2341": "esĠthatĠ",
  "2342": "lev",
  "2343": "produceĠ",
  "2344": "abilityĠ",
  "2345": "ingĠinĠ",
  "2346": "ition",
  "2347": "intr",
  "2348": "idea",
  "2349": "ed,\n",
  "2350": "chap",
  "2351": "believ",
  "2352": "methodĠ",
  "2353": "moral",
  "2354": "instinctĠ",
  "2355": "prot",
  "2356": "asĠitĠ",
  "2357": "schol",
  "2358": "expect",
  "2359": "grasp",
  "2360": "onceĠ",
  "2361": "conver",
  "2362": "multi",
  "2363": "),Ġ",
  "2364": "stric",
  "2365": "awayĠ",
  "2366": ".ĠIfĠyouĠ",
  "2367": "numberĠofĠ",
  "2368": "liber",
  "2369": "liveĠ",
  "2370": "ublicĠ",
  "2371": "industr",
  "2372": "haveĠaĠ",
  "2373": "organiz",
  "2374": "ingĠitĠ",
  "2375": "able\n",
  "2376": "ateĠtheĠ",
  "2377": "habit",
  "2378": "expression",
  "2379": "onĠaĠ",
  "2380": "absol",
  "2381": "deep",
  "2382": "intoĠaĠ",
  "2383": "enessĠ",
  "2384": "outw",
  "2385": "ru",
  "2386": "connectionĠ",
  "2387": "obedienceĠ",
  "2388": "ibleĠ",
  "2389": "introduc",
  "2390": "Project\nGutenberg",
  "2391": "tradem",
  "2392": "Archi",
  "2393": "ArchiveĠ",
  "2394": "ArchiveĠFound",
  "2395": "bookĠ",
  "2396": "Stat",
  "2397": "psycholog",
  "2398": "ithme",
  "2399": "dea",
  "2400": "who\n",
  "2401": "givesĠ",
  "2402": "tryĠtoĠ",
  "2403": "anti",
  "2404": "umĠ",
  "2405": "cru",
  "2406": "truthĠ",
  "2407": "largeĠ",
  "2408": "said",
  "2409": "disciplineĠ",
  "2410": "ing,ĠandĠ",
  "2411": "oughtĠtoĠ",
  "2412": "more\n",
  "2413": "upon",
  "2414": "effect",
  "2415": "however,Ġ",
  "2416": "saidĠ",
  "2417": "aint",
  "2418": "towardsĠ",
  "2419": "lightĠ",
  "2420": "owĠ",
  "2421": "placeĠ",
  "2422": "ing,\n",
  "2423": "forthĠ",
  "2424": ".\n\nĠĠ",
  "2425": ".\n\n\n",
  "2426": ",--theĠ",
  "2427": "_,Ġ_",
  "2428": "red",
  "2429": "TR",
  "2430": "hood",
  "2431": "likelyĠ",
  "2432": "sĠtoĠbeĠ",
  "2433": "espec",
  "2434": "sinceĠ",
  "2435": "instructionĠ",
  "2436": "own\n",
  "2437": "lyĠtheĠ",
  "2438": "opport",
  "2439": "abs",
  "2440": "bodyĠ",
  "2441": "\nthatĠ",
  "2442": "uchĠ",
  "2443": ".\n\nTh",
  "2444": "timesĠ",
  "2445": "course,Ġ",
  "2446": "suffici",
  "2447": "mar",
  "2448": "didĠ",
  "2449": "knowledgeĠofĠ",
  "2450": "was\n",
  "2451": "comesĠ",
  "2452": "ther",
  "2453": "action",
  "2454": "sionĠofĠ",
  "2455": "curios",
  "2456": "UnitedĠ",
  "2457": "edĠfromĠ",
  "2458": "ATION",
  "2459": "LI",
  "2460": "s,ĠbutĠ",
  "2461": "experienc",
  "2462": "employ",
  "2463": "which,Ġ",
  "2464": "better",
  "2465": "wiseĠ",
  "2466": "partĠofĠtheĠ",
  "2467": "acquir",
  "2468": "interpret",
  "2469": "ground",
  "2470": "positionĠ",
  "2471": "fort",
  "2472": "pure",
  "2473": "memor",
  "2474": "I\n",
  "2475": "war",
  "2476": "whateverĠ",
  "2477": "moreĠthanĠ",
  "2478": "skillĠ",
  "2479": "wis",
  "2480": "fal",
  "2481": "hor",
  "2482": "clos",
  "2483": "dut",
  "2484": "compar",
  "2485": "areĠtheĠ",
  "2486": "schem",
  "2487": "occur",
  "2488": "exercis",
  "2489": "claim",
  "2490": "factsĠ",
  "2491": "ingĠorĠ",
  "2492": "faith",
  "2493": "_\n\n",
  "2494": "self-realis",
  "2495": "Ġf.",
  "2496": "AP",
  "2497": "ĠĠĠĠĠĠĠĠĠĠĠĠĠĠĠĠĠĠĠĠĠĠĠĠ",
  "2498": "possibleĠtoĠ",
  "2499": "most\n",
  "2500": "bear",
  "2501": "especi",
  "2502": "add",
  "2503": "teachersĠ",
  "2504": "sense",
  "2505": "inglyĠ",
  "2506": "worth",
  "2507": "util",
  "2508": "mach",
  "2509": "ItĠisĠ",
  "2510": "teachingĠ",
  "2511": "aut",
  "2512": "WhatĠ",
  "2513": "allowedĠtoĠ",
  "2514": "no\n",
  "2515": "atedĠbyĠ",
  "2516": "ak",
  "2517": "absolut",
  "2518": "ourselvesĠ",
  "2519": "beginĠ",
  "2520": "dog",
  "2521": "rest",
  "2522": "happen",
  "2523": "caseĠ",
  "2524": "answer",
  "2525": "vitalĠ",
  "2526": "thing",
  "2527": "partsĠ",
  "2528": "Sec",
  "2529": "titu",
  "2530": "feelĠ",
  "2531": "geograph",
  "2532": "toĠre",
  "2533": "meanĠ",
  "2534": "mechanicalĠ",
  "2535": "anythingĠ",
  "2536": "fav",
  "2537": "lifeĠofĠ",
  "2538": "punishment",
  "2539": "beginn",
  "2540": "ese\n",
  "2541": "ratherĠ",
  "2542": "Ġthey\n",
  "2543": "genu",
  "2544": ",ĠthisĠ",
  "2545": "actionĠ",
  "2546": "familiarĠ",
  "2547": "fall",
  "2548": "eastĠ",
  "2549": "identi",
  "2550": "definit",
  "2551": "infin",
  "2552": "ĠthoseĠwhoĠ",
  "2553": "kindĠofĠ",
  "2554": "may\n",
  "2555": "pupilĠ",
  "2556": "arithme",
  "2557": "suchĠasĠ",
  "2558": "stanc",
  "2559": "askĠ",
  "2560": "pupilsĠ",
  "2561": "wishĠtoĠ",
  "2562": "pi",
  "2563": "ĠthereĠisĠ",
  "2564": "ally,Ġ",
  "2565": "ofĠthemĠ",
  "2566": "sheĠ",
  "2567": "disciplin",
  "2568": "impl",
  "2569": "ternĠ",
  "2570": "differenceĠ",
  "2571": "tainĠ",
  "2572": "cultiv",
  "2573": "wea",
  "2574": "ra",
  "2575": "where",
  "2576": "group",
  "2577": "relationĠ",
  "2578": "col",
  "2579": "doingĠ",
  "2580": "Ġthought",
  "2581": "(_i",
  "2582": "livingĠ",
  "2583": "|\n",
  "2584": "ING",
  "2585": "sex",
  "2586": "ĠthereĠ",
  "2587": "far",
  "2588": "aboutĠtheĠ",
  "2589": "chief",
  "2590": "sterĠ",
  "2591": "soĠthatĠ",
  "2592": "ularĠ",
  "2593": "speakĠ",
  "2594": "tor",
  "2595": "emo",
  "2596": "actualĠ",
  "2597": "Wes",
  "2598": "crib",
  "2599": "obj",
  "2600": "ĠofĠtheĠ",
  "2601": "ceed",
  "2602": "knownĠ",
  "2603": "ingĠofĠtheĠ",
  "2604": "guid",
  "2605": "doctr",
  "2606": "meaningsĠ",
  "2607": "UtopianĠ",
  "2608": "ingĠthisĠ",
  "2609": "ED",
  "2610": "able",
  "2611": "fundament",
  "2612": ",ĠthoughĠ",
  "2613": "civil",
  "2614": "betweenĠtheĠ",
  "2615": "forĠthe\n",
  "2616": "ations,Ġ",
  "2617": "eĠorĠ",
  "2618": "intrins",
  "2619": "ash",
  "2620": "hold",
  "2621": "easilyĠ",
  "2622": ",ĠitĠisĠ",
  "2623": "hal",
  "2624": "influenceĠ",
  "2625": "idd",
  "2626": "ideas",
  "2627": "sympath",
  "2628": "lookĠ",
  "2629": "[2",
  "2630": "theĠchildĠ",
  "2631": "activeĠ",
  "2632": "soĠfarĠasĠ",
  "2633": "IfĠ",
  "2634": "reward",
  "2635": "natural",
  "2636": "activity",
  "2637": "LĠ",
  "2638": "o,Ġ",
  "2639": "meansĠofĠ",
  "2640": "time",
  "2641": "wayĠofĠ",
  "2642": "charact",
  "2643": "toĠtheirĠ",
  "2644": "e-",
  "2645": "should\n",
  "2646": "contentĠ",
  "2647": "notĠtheĠ",
  "2648": "affor",
  "2649": "itionĠ",
  "2650": "pursu",
  "2651": "peri",
  "2652": "enjo",
  "2653": "realiz",
  "2654": "much",
  "2655": "GodĠ",
  "2656": "exact",
  "2657": "soonĠ",
  "2658": "ies,Ġ",
  "2659": "general",
  "2660": "ityĠandĠ",
  "2661": "ether",
  "2662": "ĠthenĠ",
  "2663": "againĠ",
  "2664": "goesĠ",
  "2665": "AndĠ",
  "2666": ".\"",
  "2667": "s\"Ġ",
  "2668": "'s\n",
  "2669": "haveĠtoĠ",
  "2670": "eBook",
  "2671": "girl",
  "2672": "poli",
  "2673": "off",
  "2674": "weĠmustĠ",
  "2675": "s.\n",
  "2676": "casesĠ",
  "2677": "ren",
  "2678": "illustr",
  "2679": "run",
  "2680": "originalĠ",
  "2681": "inĠthatĠ",
  "2682": "whenĠweĠ",
  "2683": "notic",
  "2684": "ull",
  "2685": "itself,Ġ",
  "2686": "among",
  "2687": ".ĠThereĠ",
  "2688": "knowledge",
  "2689": "ate",
  "2690": "charg",
  "2691": "heĠwillĠ",
  "2692": "nessĠofĠ",
  "2693": "ream",
  "2694": "responsi",
  "2695": "directĠ",
  "2696": "ĠLiter",
  "2697": "1.F",
  "2698": "Nature",
  "2699": "ManĠ",
  "2700": "ĠĠĠĠĠĠĠ*",
  "2701": "geri",
  "2702": "w.",
  "2703": "OO",
  "2704": "CHAP",
  "2705": "CHAPT",
  "2706": "TY",
  "2707": "partĠofĠ",
  "2708": "seemĠ",
  "2709": "dealĠ",
  "2710": "seri",
  "2711": "odĠofĠ",
  "2712": "beliefĠ",
  "2713": "amoun",
  "2714": "arrow",
  "2715": "circ",
  "2716": "understo",
  "2717": "sĠand\n",
  "2718": "sĠitĠ",
  "2719": "onom",
  "2720": "dur",
  "2721": "entirelyĠ",
  "2722": "ofĠourĠ",
  "2723": "sav",
  "2724": "mos",
  "2725": "abstract",
  "2726": "makingĠ",
  "2727": "fortun",
  "2728": "bol",
  "2729": "prepar",
  "2730": "Educ",
  "2731": "www.",
  "2732": "ated\n",
  "2733": "ever\n",
  "2734": "agreement",
  "2735": "erv",
  "2736": "sac",
  "2737": ".ĠSom",
  "2738": "tionĠthatĠ",
  "2739": "desireĠtoĠ",
  "2740": "careĠ",
  "2741": "ted",
  "2742": ".ĠThatĠ",
  "2743": "etr",
  "2744": "ance,Ġ",
  "2745": "broughtĠ",
  "2746": "child,Ġ",
  "2747": "urĠ",
  "2748": "atmos",
  "2749": "atmosph",
  "2750": "normalĠ",
  "2751": "otĠ",
  "2752": "want",
  "2753": "ann",
  "2754": "Ġthing",
  "2755": "byĠwhichĠ",
  "2756": "aspect",
  "2757": "paragraphĠ",
  "2758": "agu",
  "2759": "ref",
  "2760": "expressionĠ",
  "2761": "inĠwhichĠtheĠ",
  "2762": "Man'sĠ",
  "2763": "ofĠthink",
  "2764": "19",
  "2765": "TE",
  "2766": "indep",
  "2767": "independ",
  "2768": "mot",
  "2769": "sĠorĠ",
  "2770": "\n\n\nCHAPT",
  "2771": "\n\n\nCHAPTERĠ",
  "2772": "centur",
  "2773": "immedi",
  "2774": "associatedĠ",
  "2775": "contr",
  "2776": "what\n",
  "2777": "viewĠ",
  "2778": "occas",
  "2779": "cruel",
  "2780": "also",
  "2781": "communic",
  "2782": ".ĠSoĠ",
  "2783": "school,Ġ",
  "2784": "ight\n",
  "2785": "whomĠ",
  "2786": "itĠofĠ",
  "2787": "subs",
  "2788": "facult",
  "2789": "Con",
  "2790": "ficialĠ",
  "2791": "ityĠofĠtheĠ",
  "2792": "ras",
  "2793": "instinctsĠ",
  "2794": "antlyĠ",
  "2795": "symbol",
  "2796": "accessĠ",
  "2797": "non",
  "2798": "formalĠ",
  "2799": "notĠonlyĠ",
  "2800": "discus",
  "2801": "advant",
  "2802": "latterĠ",
  "2803": "sayĠthatĠ",
  "2804": "moreĠorĠ",
  "2805": "establ",
  "2806": "ofĠthoseĠ",
  "2807": "theticĠ",
  "2808": "0Ġ",
  "2809": "fromĠthe\n",
  "2810": "controlĠ",
  "2811": "takesĠ",
  "2812": "ration",
  "2813": "ingĠthe\n",
  "2814": "insteadĠofĠ",
  "2815": "ustom",
  "2816": "isedĠ",
  "2817": "critic",
  "2818": "spe",
  "2819": "_\n",
  "2820": "icenseĠ",
  "2821": "well-",
  "2822": "especiallyĠ",
  "2823": "avo",
  "2824": "considerĠ",
  "2825": "IĠshallĠ",
  "2826": "processĠ",
  "2827": "addi",
  "2828": "ori",
  "2829": "respect",
  "2830": "inĠallĠ",
  "2831": "circum",
  "2832": "processĠofĠ",
  "2833": "pleasureĠ",
  "2834": "fearĠ",
  "2835": "achĠ",
  "2836": "must\n",
  "2837": "sourc",
  "2838": "ular",
  "2839": ".ĠR",
  "2840": "extĠ",
  "2841": "ifĠweĠ",
  "2842": "ous,Ġ",
  "2843": "control",
  "2844": "olderĠ",
  "2845": "if\n",
  "2846": "prec",
  "2847": "edĠtoĠtheĠ",
  "2848": "arilyĠ",
  "2849": "withĠthe\n",
  "2850": "mit",
  "2851": "say,Ġ",
  "2852": "inev",
  "2853": "inevit",
  "2854": "pay",
  "2855": "distr",
  "2856": "growthĠofĠ",
  "2857": "ProjectĠGutenberg™\n",
  "2858": "aryĠArchiveĠFound",
  "2859": "1.F.",
  "2860": "iner",
  "2861": "---+---+",
  "2862": "foster",
  "2863": "On",
  "2864": "ĠĠĠĠĠĠĠĠĠĠĠĠ",
  "2865": "greaterĠ",
  "2866": "intim",
  "2867": "useful",
  "2868": "Ġtheor",
  "2869": ".\n\nThisĠ",
  "2870": "ifĠheĠ",
  "2871": "narrow",
  "2872": "whatĠtheĠ",
  "2873": "sĠwithĠ",
  "2874": "bin",
  "2875": "mag",
  "2876": "room",
  "2877": "med",
  "2878": "ishedĠ",
  "2879": "pop",
  "2880": "terr",
  "2881": "helpĠ",
  "2882": "e,ĠasĠ",
  "2883": "est\n",
  "2884": "IĠshouldĠ",
  "2885": "naturallyĠ",
  "2886": "p.Ġ",
  "2887": "ingĠthemĠ",
  "2888": "us,Ġ",
  "2889": "byĠthe\n",
  "2890": "tiesĠ",
  "2891": "child’sĠ",
  "2892": "motiveĠ",
  "2893": "simil",
  "2894": "ose\n",
  "2895": "part",
  "2896": "WesternĠ",
  "2897": "domin",
  "2898": "wantĠ",
  "2899": "ideaĠofĠ",
  "2900": "ityĠisĠ",
  "2901": "vig",
  "2902": "instinct",
  "2903": ",ĠofĠ",
  "2904": "acquaint",
  "2905": "phras",
  "2906": "plant",
  "2907": "relationship",
  "2908": "missionĠ",
  "2909": "otherĠword",
  "2910": "Egeri",
  "2911": "chec",
  "2912": ",Ġ2",
  "2913": ".ĠG",
  "2914": "serveĠ",
  "2915": "pedag",
  "2916": "pedagog",
  "2917": "attain",
  "2918": "level",
  "2919": "ister",
  "2920": ";ĠitĠ",
  "2921": "howĠtoĠ",
  "2922": "thereĠareĠ",
  "2923": "secondĠ",
  "2924": "gram",
  "2925": ",ĠthatĠtheĠ",
  "2926": "prep",
  "2927": "partlyĠ",
  "2928": "effectĠ",
  "2929": "tri",
  "2930": "gam",
  "2931": "frequ",
  "2932": "tell",
  "2933": "strongĠ",
  "2934": "existĠ",
  "2935": "escap",
  "2936": "smallĠ",
  "2937": "adap",
  "2938": "s--",
  "2939": "press",
  "2940": ".ĠHisĠ",
  "2941": ".ĠUn",
  "2942": "ence\n",
  "2943": "experience",
  "2944": "round",
  "2945": "flow",
  "2946": "worksĠ",
  "2947": "multiplic",
  "2948": "Utopia",
  "2949": "reĠ",
  "2950": "personality",
  "2951": "Ital",
  "2952": "singleĠ",
  "2953": "fil",
  "2954": "AG",
  "2955": "solu",
  "2956": "unti",
  "2957": "e_Ġ",
  "2958": "judgment",
  "2959": "imil",
  "2960": "toĠmakeĠ",
  "2961": "destro",
  "2962": "andĠaĠ",
  "2963": "technicalĠ",
  "2964": "whichĠhasĠ",
  "2965": "hadĠbeenĠ",
  "2966": "possible",
  "2967": "ingĠtoĠtheĠ",
  "2968": "possess",
  "2969": "ugg",
  "2970": "mathem",
  "2971": "fair",
  "2972": "special",
  "2973": "ould",
  "2974": "eĠofĠaĠ",
  "2975": "ed.ĠTheĠ",
  "2976": "gain",
  "2977": "concreteĠ",
  "2978": ";ĠthatĠ",
  "2979": "rup",
  "2980": "lef",
  "2981": "into\n",
  "2982": "asĠanĠ",
  "2983": "soĠon",
  "2984": "enough",
  "2985": "obviousĠ",
  "2986": "inĠorderĠtoĠ",
  "2987": "ity,ĠandĠ",
  "2988": "ed,ĠtheĠ",
  "2989": "isionĠ",
  "2990": "vagu",
  "2991": "grown",
  "2992": "tellĠ",
  "2993": "dead",
  "2994": "orĠofĠ",
  "2995": "currentĠ",
  "2996": "streng",
  "2997": "Univers",
  "2998": "consciousnessĠ",
  "2999": ",Ġthen,Ġ",
  "3000": "subject-",
  "3001": "Sec.Ġ",
  "3002": "toĠthem",
  "3003": "help",
  "3004": "awĠ",
  "3005": "kep",
  "3006": "ableĠofĠ",
  "3007": "uni",
  "3008": ".\nTh",
  "3009": "brea",
  "3010": "appropri",
  "3011": "isĠinĠ",
  "3012": "propor",
  "3013": "highĠ",
  "3014": "appreh",
  "3015": "capacityĠ",
  "3016": "deriv",
  "3017": "ation,ĠandĠ",
  "3018": "lastĠ",
  "3019": "ign",
  "3020": "Com",
  "3021": "grant",
  "3022": "specif",
  "3023": "formsĠofĠ",
  "3024": "systemĠofĠ",
  "3025": "usuallyĠ",
  "3026": "scholar",
  "3027": "rout",
  "3028": "ok",
  "3029": "explan",
  "3030": "edĠby\n",
  "3031": "understandĠ",
  "3032": "appealĠ",
  "3033": "tĠofĠtheĠ",
  "3034": "growingĠ",
  "3035": "Sci",
  "3036": "instr",
  "3037": "instrum",
  "3038": ",\"",
  "3039": ".ĠYouĠ",
  "3040": "www.g",
  "3041": "www.gutenberg",
  "3042": "www.gutenberg.",
  "3043": "www.gutenberg.org",
  "3044": "\nĠĠ",
  "3045": "effectiveĠ",
  "3046": "childrenĠareĠ",
  "3047": ",ĠinĠtheĠ",
  "3048": "holdĠ",
  "3049": "esĠaĠ",
  "3050": "important",
  "3051": "lackĠ",
  "3052": ",ĠforĠ",
  "3053": "intelligenceĠ",
  "3054": "attentionĠ",
  "3055": "circumstanc",
  "3056": "orĠaĠ",
  "3057": "would\n",
  "3058": "ju",
  "3059": "longerĠ",
  "3060": "elessĠ",
  "3061": "reduc",
  "3062": "weĠmayĠ",
  "3063": "es.ĠTheĠ",
  "3064": "respectĠ",
  "3065": "difficultĠ",
  "3066": "taugh",
  "3067": "won",
  "3068": "edĠto\n",
  "3069": "averageĠ",
  "3070": "encour",
  "3071": "andĠofĠ",
  "3072": "whatĠweĠ",
  "3073": "tism",
  "3074": "toĠthatĠ",
  "3075": "deduc",
  "3076": "freelyĠ",
  "3077": "andĠthenĠ",
  "3078": "sever",
  "3079": "notĠtoĠ",
  "3080": "back",
  "3081": "very\n",
  "3082": "familiar",
  "3083": "esĠof\n",
  "3084": "down",
  "3085": "ego",
  "3086": "factĠthatĠ",
  "3087": "handĠ",
  "3088": "accept",
  "3089": "trademark",
  "3090": "thes",
  "3091": "pathĠofĠ",
  "3092": "dat",
  "3093": "12",
  "3094": "extre",
  "3095": "existingĠ",
  "3096": "definiteĠ",
  "3097": "put",
  "3098": "world,Ġ",
  "3099": "common",
  "3100": "couldĠnotĠ",
  "3101": "whyĠ",
  "3102": "connect",
  "3103": "confus",
  "3104": "moreĠorĠlessĠ",
  "3105": "lab",
  "3106": "ifĠtheyĠ",
  "3107": "societ",
  "3108": "beaut",
  "3109": "whollyĠ",
  "3110": "argum",
  "3111": "repe",
  "3112": ".ĠAtĠ",
  "3113": "fel",
  "3114": "manif",
  "3115": "hoodĠ",
  "3116": "edĠforĠ",
  "3117": "fiel",
  "3118": "completeĠ",
  "3119": "lessonĠ",
  "3120": "directlyĠ",
  "3121": "toĠhisĠ",
  "3122": "ofĠthis\n",
  "3123": "\nĠĠĠĠ",
  "3124": "growthĠofĠtheĠ",
  "3125": "significantĠ",
  "3126": "ĠĠĠĠĠĠĠ*ĠĠĠĠĠĠĠ*",
  "3127": "UC",
  "3128": "difficulti",
  "3129": "riv",
  "3130": "attribut",
  "3131": ";ĠitĠisĠ",
  "3132": "extentĠ",
  "3133": "requiredĠ",
  "3134": "yĠinĠ",
  "3135": "otherwiseĠ",
  "3136": "elseĠ",
  "3137": "becauseĠitĠ",
  "3138": "star",
  "3139": "\nisĠ",
  "3140": "s\nandĠ",
  "3141": "y,ĠtheĠ",
  "3142": "they\n",
  "3143": "build",
  "3144": "wast",
  "3145": "oveĠ",
  "3146": "didĠnotĠ",
  "3147": "belong",
  "3148": "chann",
  "3149": "analys",
  "3150": "pain",
  "3151": "emphas",
  "3152": "qualitiesĠ",
  "3153": "selves,Ġ",
  "3154": "ident",
  "3155": "pot",
  "3156": "los",
  "3157": ",\ntheĠ",
  "3158": "skill",
  "3159": "formationĠ",
  "3160": "grown-",
  "3161": "sĠisĠ",
  "3162": "tast",
  "3163": "entireĠ",
  "3164": "selfĠ",
  "3165": "]\n\nTheĠ",
  "3166": "personality,Ġ",
  "3167": "facultiesĠ",
  "3168": "man'sĠ",
  "3169": "UnitedĠStat",
  "3170": "avail",
  "3171": "GH",
  "3172": "18",
  "3173": "rom",
  "3174": "hereĠ",
  "3175": "agreementĠ",
  "3176": ".ĠAl",
  "3177": "result",
  "3178": "respond",
  "3179": "possible,Ġ",
  "3180": "do\n",
  "3181": "bad",
  "3182": "everth",
  "3183": "uch",
  "3184": "tions,Ġ",
  "3185": "toĠthink",
  "3186": "yĠof\n",
  "3187": "carriedĠ",
  "3188": "probablyĠ",
  "3189": "orderĠ",
  "3190": "ĠofĠaĠ",
  "3191": ".\n\nS",
  "3192": "ate,Ġ",
  "3193": "aceĠ",
  "3194": "compell",
  "3195": "sometimesĠ",
  "3196": "butĠtheĠ",
  "3197": "es,ĠtheĠ",
  "3198": "regardedĠasĠ",
  "3199": "wouldĠhaveĠ",
  "3200": "training",
  "3201": "sĠofĠaĠ",
  "3202": "justĠasĠ",
  "3203": "Chur",
  "3204": ".ĠTheseĠ",
  "3205": "danger",
  "3206": "byĠaĠ",
  "3207": "ToĠ",
  "3208": "open",
  "3209": "suppor",
  "3210": "eĠofĠhisĠ",
  "3211": "activitiesĠ",
  "3212": "ifĠitĠ",
  "3213": "ofĠitsĠ",
  "3214": "nature,Ġ",
  "3215": "pastĠ",
  "3216": "atĠleastĠ",
  "3217": "distinguish",
  "3218": "developmentĠofĠ",
  "3219": "spee",
  "3220": "lawĠ",
  "3221": "ingĠth",
  "3222": "NO",
  "3223": "constantlyĠ",
  "3224": "effectiv",
  "3225": "outwardĠ",
  "3226": "realiseĠ",
  "3227": "affirm",
  "3228": "check",
  "3229": "lineĠ",
  "3230": "fundamentalĠ",
  "3231": "keepĠ",
  "3232": "couldĠbeĠ",
  "3233": "necessarilyĠ",
  "3234": "oughtĠtoĠbeĠ",
  "3235": "valueĠ",
  "3236": "body",
  "3237": "needsĠ",
  "3238": "Gree",
  "3239": "meric",
  "3240": "ĠthemselvesĠ",
  "3241": "kindĠ",
  "3242": "thusĠ",
  "3243": "e\ntheĠ",
  "3244": "being\n",
  "3245": "principleĠ",
  "3246": "still",
  "3247": "teachĠ",
  "3248": "discipline",
  "3249": "fath",
  "3250": "pris",
  "3251": "itĠwillĠ",
  "3252": "without\n",
  "3253": "environment",
  "3254": "impuls",
  "3255": "fyĠ",
  "3256": "adequateĠ",
  "3257": "ger",
  "3258": "begin",
  "3259": "sĠforĠ",
  "3260": ".ĠFor",
  "3261": "freedomĠ",
  "3262": "genuineĠ",
  "3263": "example,Ġ",
  "3264": "testĠ",
  "3265": "child\n",
  "3266": "scr",
  "3267": "ied",
  "3268": "businessĠ",
  "3269": "maintain",
  "3270": "indĠ",
  "3271": "becomingĠ",
  "3272": "dream",
  "3273": "reality",
  "3274": "responseĠ",
  "3275": "referenceĠ",
  "3276": "previ",
  "3277": "._Ġ",
  "3278": "elementaryĠschool",
  "3279": "irec",
  "3280": "rig",
  "3281": "**",
  "3282": "SI",
  "3283": "parentĠ",
  "3284": "aveĠ",
  "3285": "to-",
  "3286": "followingĠ",
  "3287": "children\n",
  "3288": "inĠsomeĠ",
  "3289": "formerĠ",
  "3290": "agesĠ",
  "3291": "ould,Ġ",
  "3292": "fore",
  "3293": "ely,Ġ",
  "3294": "pen",
  "3295": "s,ĠorĠ",
  "3296": "results",
  "3297": "upĠtheĠ",
  "3298": "beyond",
  "3299": "threeĠ",
  "3300": "Americ",
  "3301": "happin",
  "3302": "member",
  "3303": "Chil",
  "3304": "usedĠ",
  "3305": "purelyĠ",
  "3306": ".ĠByĠ",
  "3307": "motiv",
  "3308": "togetherĠ",
  "3309": "sin",
  "3310": "wal",
  "3311": "to\nbeĠ",
  "3312": "ulg",
  "3313": "ere,Ġ",
  "3314": "passion",
  "3315": "religion",
  "3316": "measure",
  "3317": "stateĠofĠ",
  "3318": "WhenĠ",
  "3319": "goingĠ",
  "3320": "post",
  "3321": "remainĠ",
  "3322": "leav",
  "3323": "whichĠthe\n",
  "3324": "this\n",
  "3325": "whenĠheĠ",
  "3326": "chapter",
  "3327": "itĠtoĠ",
  "3328": "minut",
  "3329": ",ĠyouĠ",
  "3330": "sightĠ",
  "3331": "movementĠ",
  "3332": "elabor",
  "3333": "sound",
  "3334": "head",
  "3335": "everythingĠ",
  "3336": "pla",
  "3337": "stateĠ",
  "3338": "pressur",
  "3339": "doctrin",
  "3340": "distribu",
  "3341": "express",
  "3342": "whichĠisĠtheĠ",
  "3343": "regul",
  "3344": "acceptedĠ",
  "3345": ";ĠandĠtheĠ",
  "3346": "NatureĠ",
  "3347": "Project\nGutenberg™",
  "3348": "termsĠofĠthisĠ",
  "3349": "electronicĠworkĠ",
  "3350": "ĠLiteraryĠArchiveĠFound",
  "3351": "donationsĠ",
  "3352": "medium",
  "3353": "spiritual",
  "3354": "|ĠĠĠ",
  "3355": "one'sĠ",
  "3356": "legal",
  "3357": "_\n\n[Sidenote:Ġ",
  "3358": "withĠthisĠ",
  "3359": "ive",
  "3360": "essentialĠ",
  "3361": "whichĠisĠnotĠ",
  "3362": "likelyĠtoĠ",
  "3363": "untilĠ",
  "3364": "enĠtoĠ",
  "3365": ".ĠThisĠisĠ",
  "3366": "keptĠ",
  "3367": "ant\n",
  "3368": "hea",
  "3369": "matterĠofĠ",
  "3370": "educationĠisĠ",
  "3371": "can\n",
  "3372": "usefulĠ",
  "3373": "sam",
  "3374": ":ĠtheĠ",
  "3375": "justi",
  "3376": "publicĠ",
  "3377": "itĠmayĠ",
  "3378": "hour",
  "3379": "bal",
  "3380": "esti",
  "3381": "etĠusĠ",
  "3382": "isi",
  "3383": "ama",
  "3384": "hol",
  "3385": "indeedĠ",
  "3386": "talk",
  "3387": "recogniz",
  "3388": "ism,Ġ",
  "3389": "sentim",
  "3390": "position",
  "3391": "alter",
  "3392": "exclus",
  "3393": "neg",
  "3394": "volun",
  "3395": "strang",
  "3396": "fru",
  "3397": "motherĠ",
  "3398": "withĠitsĠ",
  "3399": "remov",
  "3400": "observation",
  "3401": "inĠeveryĠ",
  "3402": "ision",
  "3403": "ingĠwithĠ",
  "3404": "crip",
  "3405": "cha",
  "3406": "one,Ġ",
  "3407": "harmon",
  "3408": "includingĠ",
  "3409": "ingĠoutĠ",
  "3410": "empir",
  "3411": "causeĠ",
  "3412": "desireĠ",
  "3413": "decid",
  "3414": "\nofĠtheĠ",
  "3415": "icul",
  "3416": "whenĠtheyĠ",
  "3417": "mightĠbeĠ",
  "3418": "adultĠ",
  "3419": "solv",
  "3420": "possiblyĠ",
  "3421": "some\n",
  "3422": "edĠatĠ",
  "3423": "bit",
  "3424": "questionsĠ",
  "3425": "sideĠ",
  "3426": "itĠisĠaĠ",
  "3427": "ock",
  "3428": ".ĠNoĠ",
  "3429": "combin",
  "3430": "ither",
  "3431": "or,Ġ",
  "3432": "every\n",
  "3433": "strugg",
  "3434": "and,Ġ",
  "3435": "inĠanĠ",
  "3436": "bornĠ",
  "3437": "ĠthinkĠ",
  "3438": "impres",
  "3439": "first",
  "3440": "forceĠ",
  "3441": "earli",
  "3442": "it\nisĠ",
  "3443": "sensi",
  "3444": "list",
  "3445": "pointĠofĠview",
  "3446": "only\n",
  "3447": "pureĠ",
  "3448": ".ĠIfĠtheĠ",
  "3449": "hasĠaĠ",
  "3450": ".\n\n\n\n\nCHAPTERĠ",
  "3451": "InĠtheĠ",
  "3452": "ary",
  "3453": "edĠth",
  "3454": "ĠthatĠisĠ",
  "3455": "contactĠ",
  "3456": "expan",
  "3457": "convic",
  "3458": "assump",
  "3459": ".ĠSo",
  "3460": "ofĠthoughtĠ",
  "3461": "sent",
  "3462": "suggestionsĠ",
  "3463": ".\"\n\n",
  "3464": "PR",
  "3465": "powerĠofĠ",
  "3466": "issu",
  "3467": "plex",
  "3468": "remot",
  "3469": "tendĠtoĠ",
  "3470": "characterĠ",
  "3471": "capableĠofĠ",
  "3472": "learningĠ",
  "3473": "fat",
  "3474": ".ĠCon",
  "3475": "appreci",
  "3476": ".ĠBut\n",
  "3477": "thoughĠ",
  "3478": "noĠlongerĠ",
  "3479": "essionĠ",
  "3480": "car",
  "3481": "edĠaĠ",
  "3482": "thinkĠ",
  "3483": "ofĠthem",
  "3484": "pet",
  "3485": "ici",
  "3486": "mathematic",
  "3487": "methodsĠ",
  "3488": "aboveĠ",
  "3489": "e_",
  "3490": "toldĠ",
  "3491": "secure",
  "3492": "atĠaĠ",
  "3493": "full",
  "3494": "West",
  "3495": "e,ĠorĠ",
  "3496": ".ĠIt\n",
  "3497": "rever",
  "3498": "istic",
  "3499": "e\nandĠ",
  "3500": "endĠofĠ",
  "3501": "growĠ",
  "3502": "attr",
  "3503": "ĠthinkingĠ",
  "3504": "month",
  "3505": "sun",
  "3506": "initi",
  "3507": "ences",
  "3508": "selfish",
  "3509": "asĠwellĠasĠ",
  "3510": "lifeĠandĠ",
  "3511": "asĠweĠ",
  "3512": "labor",
  "3513": "conceptionĠ",
  "3514": "s:Ġ",
  "3515": "EDUC",
  "3516": "SE",
  "3517": "ĠY",
  "3518": "only",
  "3519": "spher",
  "3520": "mil",
  "3521": "assimil",
  "3522": "lackĠofĠ",
  "3523": "anyĠotherĠ",
  "3524": "ities,Ġ",
  "3525": "were\n",
  "3526": "impossibleĠ",
  "3527": "highestĠ",
  "3528": "moment",
  "3529": ".ĠIn\n",
  "3530": "ality",
  "3531": "conf",
  "3532": "paidĠ",
  "3533": "subst",
  "3534": "arch",
  "3535": "variet",
  "3536": "pleasure",
  "3537": "science,Ġ",
  "3538": "suffer",
  "3539": "?ĠTheĠ",
  "3540": "whichĠIĠ",
  "3541": "whoĠareĠ",
  "3542": "acquiredĠ",
  "3543": "ĠthatĠheĠ",
  "3544": "worthĠ",
  "3545": "Dr",
  "3546": "channel",
  "3547": "intellectual",
  "3548": "leep",
  "3549": "whichĠis\n",
  "3550": "when\n",
  "3551": "ing\ntheĠ",
  "3552": "try",
  "3553": "not,Ġ",
  "3554": "e.\n",
  "3555": "isĠanĠ",
  "3556": "ought\n",
  "3557": "thatĠareĠ",
  "3558": "ledĠ",
  "3559": "offĠ",
  "3560": "him,Ġ",
  "3561": "content",
  "3562": "doĠnot\n",
  "3563": ".\n\nA",
  "3564": "ofĠallĠ",
  "3565": "protect",
  "3566": "ush",
  "3567": "asĠmuchĠ",
  "3568": "historicalĠ",
  "3569": "constantĠ",
  "3570": "inten",
  "3571": "setĠforthĠ",
  "3572": "set",
  "3573": "accurac",
  "3574": "indirec",
  "3575": "personalityĠ",
  "3576": "U.",
  "3577": "U.S",
  "3578": "actual",
  "3579": "|//",
  "3580": ",--aĠ",
  "3581": "teacher'sĠ",
  "3582": "IC",
  "3583": "madeĠtoĠ",
  "3584": "neigh",
  "3585": "ningĠ",
  "3586": "convinc",
  "3587": "atta",
  "3588": "between\n",
  "3589": "y.ĠTheĠ",
  "3590": "methodĠofĠ",
  "3591": "sacr",
  "3592": "leadĠ",
  "3593": ".ĠSuchĠ",
  "3594": "adop",
  "3595": "sak",
  "3596": "profession",
  "3597": "able,Ġ",
  "3598": "usĠtoĠ",
  "3599": "andĠtheirĠ",
  "3600": "their\n",
  "3601": "classĠ",
  "3602": "shad",
  "3603": "thanĠtheĠ",
  "3604": "effici",
  "3605": "contain",
  "3606": "near",
  "3607": "nextĠ",
  "3608": "simpleĠ",
  "3609": "reat",
  "3610": "religionĠ",
  "3611": "rad",
  "3612": ".ĠOneĠ",
  "3613": "wasĠtheĠ",
  "3614": "ali",
  "3615": "peculiarĠ",
  "3616": "Ġthis",
  "3617": "pict",
  "3618": "course",
  "3619": "limitedĠ",
  "3620": "shap",
  "3621": "sympa",
  "3622": "aĠchildĠ",
  "3623": "becauseĠtheĠ",
  "3624": "beh",
  "3625": "thinkingĠ",
  "3626": "ileĠ",
  "3627": "iel",
  "3628": "nessĠandĠ",
  "3629": "four",
  "3630": "spirit,Ġ",
  "3631": "towardĠ",
  "3632": "inĠorder",
  "3633": "U.S.Ġ",
  "3634": "Project\nGutenberg™Ġ",
  "3635": "rang",
  "3636": "resourc",
  "3637": "fron",
  "3638": "functionĠofĠ",
  "3639": "perceptiveĠ",
  "3640": "(_ii",
  "3641": ",Ġ7",
  "3642": "youĠareĠ",
  "3643": "readingĠ",
  "3644": "EDUCATION",
  "3645": "IV",
  "3646": "isolatedĠ",
  "3647": "bringĠ",
  "3648": "gover",
  "3649": "compan",
  "3650": "willĠnotĠ",
  "3651": "importanceĠ",
  "3652": ",ĠthereĠ",
  "3653": "s,ĠtoĠ",
  "3654": "natural\n",
  "3655": "crac",
  "3656": "ticallyĠ",
  "3657": "sacrific",
  "3658": "sĠofĠhisĠ",
  "3659": "alityĠ",
  "3660": "haveĠtheĠ",
  "3661": "s.ĠButĠ",
  "3662": "thereĠisĠnoĠ",
  "3663": "sear",
  "3664": "yĠthatĠ",
  "3665": "answerĠ",
  "3666": "tradi",
  "3667": "ent,Ġ",
  "3668": "dĠtheĠ",
  "3669": "let",
  "3670": "otherĠhand",
  "3671": "human\n",
  "3672": "future",
  "3673": ".ĠAll",
  "3674": "ofĠcourse,Ġ",
  "3675": "amongĠ",
  "3676": "immediateĠ",
  "3677": "piec",
  "3678": "ast",
  "3679": "exten",
  "3680": "endingĠ",
  "3681": "quick",
  "3682": "feelingĠ",
  "3683": "bi",
  "3684": "healthyĠ",
  "3685": "persist",
  "3686": "spontaneousĠ",
  "3687": ";ĠtheyĠ",
  "3688": "analy",
  "3689": "others",
  "3690": "then",
  "3691": "pu",
  "3692": "ologicalĠ",
  "3693": "tem",
  "3694": "enem",
  "3695": "inĠa\n",
  "3696": "properĠ",
  "3697": "instinctiveĠ",
  "3698": "earth",
  "3699": "sĠtoĠtheĠ",
  "3700": "estim",
  "3701": "e--",
  "3702": "edĠintoĠ",
  "3703": "arkĠ",
  "3704": "stop",
  "3705": "howeverĠ",
  "3706": "iber",
  "3707": "downĠ",
  "3708": "treat",
  "3709": "edĠand\n",
  "3710": "observationĠ",
  "3711": "seriousĠ",
  "3712": "ary,Ġ",
  "3713": "activity,Ġ",
  "3714": "upon\n",
  "3715": "plan",
  "3716": "drama",
  "3717": "sĠuponĠ",
  "3718": "againstĠtheĠ",
  "3719": "appeal",
  "3720": "statement",
  "3721": "movement",
  "3722": "ofĠthingsĠ",
  "3723": "feature",
  "3724": "recit",
  "3725": "suggestedĠ",
  "3726": "alis",
  "3727": "countryĠ",
  "3728": "UN",
  "3729": "irdĠ",
  "3730": "IM",
  "3731": "AC",
  "3732": "eĠtoĠtheĠ",
  "3733": "’s\n",
  "3734": "correspond",
  "3735": "absor",
  "3736": "rend",
  "3737": ".ĠEv",
  "3738": "wasĠaĠ",
  "3739": "aspectĠ",
  "3740": "attemptĠtoĠ",
  "3741": "ros",
  "3742": "science",
  "3743": "aĠmanĠ",
  "3744": "evenĠth",
  "3745": "ief",
  "3746": "evilĠ",
  "3747": "reflection",
  "3748": "demandĠ",
  "3749": "complex",
  "3750": "isĠtoĠbeĠ",
  "3751": "wordsĠ",
  "3752": "masterĠ",
  "3753": "trou",
  "3754": "enjoy",
  "3755": "obtain",
  "3756": "hardlyĠ",
  "3757": "Chris",
  "3758": "Christi",
  "3759": "encourag",
  "3760": "entĠofĠ",
  "3761": "?\n\n",
  "3762": "mentĠofĠ",
  "3763": "crimin",
  "3764": "sleep",
  "3765": "affection",
  "3766": "sĠwereĠ",
  "3767": "artis",
  "3768": "are,Ġ",
  "3769": "politicalĠ",
  "3770": "aloneĠ",
  "3771": "fourĠ",
  "3772": "ical,Ġ",
  "3773": "specificĠ",
  "3774": "interestĠinĠ",
  "3775": "display",
  "3776": "co-",
  "3777": "vel",
  "3778": "certain\n",
  "3779": "followĠ",
  "3780": "judgmentĠ",
  "3781": "deliber",
  "3782": "eĠtoĠbeĠ",
  "3783": "ementĠofĠ",
  "3784": "tedĠtoĠ",
  "3785": "viol",
  "3786": "seenĠ",
  "3787": "cip",
  "3788": "perfect",
  "3789": "isonĠ",
  "3790": "sĠin\n",
  "3791": "priz",
  "3792": "lowerĠ",
  "3793": "tillĠ",
  "3794": "elementaryĠschoolĠ",
  "3795": "school\n",
  "3796": "abilityĠtoĠ",
  "3797": "--------------------------------",
  "3798": "arrang",
  "3799": "pathĠ",
  "3800": "seen",
  "3801": "distinctĠ",
  "3802": "syn",
  "3803": "(_a",
  "3804": "(_b",
  "3805": "reflectiveĠ",
  "3806": "locatedĠ",
  "3807": "ight,Ġ",
  "3808": "PRO",
  "3809": "IS",
  "3810": "ĠĠĠĠĠ",
  "3811": "expos",
  "3812": "boysĠandĠ",
  "3813": "boysĠandĠgirl",
  "3814": "edĠuponĠ",
  "3815": "controver",
  "3816": "between",
  "3817": "perplex",
  "3818": "improv",
  "3819": "writtenĠ",
  "3820": "neitherĠ",
  "3821": "justic",
  "3822": "futureĠ",
  "3823": "opportunityĠ",
  "3824": "confin",
  "3825": "atĠall",
  "3826": "appropriateĠ",
  "3827": "withĠhisĠ",
  "3828": "mone",
  "3829": "divid",
  "3830": "devo",
  "3831": "althĠ",
  "3832": "chiefĠ",
  "3833": "literature",
  "3834": ".ĠWith",
  "3835": "shallĠbeĠ",
  "3836": "leaveĠ",
  "3837": "suggestĠ",
  "3838": "avoid",
  "3839": ".\n\nInĠ",
  "3840": "ed,ĠbutĠ",
  "3841": "stup",
  "3842": "accountĠ",
  "3843": "feltĠ",
  "3844": "es,ĠbutĠ",
  "3845": "habitsĠofĠ",
  "3846": "successĠ",
  "3847": "favour",
  "3848": "edĠinĠaĠ",
  "3849": "inĠourĠ",
  "3850": "adult",
  "3851": "soĠlongĠ",
  "3852": "typeĠofĠ",
  "3853": "equallyĠ",
  "3854": "edĠin\n",
  "3855": "outcom",
  "3856": "intend",
  "3857": "highlyĠ",
  "3858": ",ĠtheirĠ",
  "3859": "inher",
  "3860": "bĠ",
  "3861": "vigor",
  "3862": "xim",
  "3863": "suggestion",
  "3864": "generaliz",
  "3865": "bound",
  "3866": "positiveĠ",
  "3867": "second",
  "3868": "asĠitĠisĠ",
  "3869": "anĠun",
  "3870": "frequentlyĠ",
  "3871": "work,Ġ",
  "3872": "worldĠofĠ",
  "3873": "ing;Ġ",
  "3874": "helpl",
  "3875": "edĠfromĠtheĠ",
  "3876": "insist",
  "3877": "susp",
  "3878": "substitut",
  "3879": "even\n",
  "3880": "others,Ġ",
  "3881": "doing",
  "3882": "largerĠ",
  "3883": "whoĠhasĠ",
  "3884": "fell",
  "3885": "conception",
  "3886": "itiesĠofĠ",
  "3887": "peculiar",
  "3888": "escapeĠ",
  "3889": "poth",
  "3890": "iversi",
  "3891": "event",
  "3892": "ianceĠ",
  "3893": "effortĠtoĠ",
  "3894": "equip",
  "3895": "confirm",
  "3896": "syll",
  "3897": "conclusionĠ",
  "3898": ".\n\n\nSec.Ġ",
  "3899": "UT",
  "3900": "\n\n\nĠĠ",
  "3901": "print",
  "3902": "III",
  "3903": "FOR",
  "3904": "maj",
  "3905": "andĠthisĠ",
  "3906": "knowledge,Ġ",
  "3907": "becaus",
  "3908": "et\n",
  "3909": "devot",
  "3910": ".ĠIĠdoĠnotĠ",
  "3911": "opportun",
  "3912": ".ĠSomeĠ",
  "3913": "ben",
  "3914": "imentĠ",
  "3915": "knowsĠ",
  "3916": "etc",
  "3917": "certainlyĠ",
  "3918": "occasion",
  "3919": "accompl",
  "3920": "soĠmuchĠ",
  "3921": "roomĠ",
  "3922": "iqu",
  "3923": "theor",
  "3924": "Childr",
  "3925": "courseĠofĠ",
  "3926": "dailyĠ",
  "3927": "andĠun",
  "3928": "rop",
  "3929": "expectĠ",
  "3930": "atĠanyĠ",
  "3931": "erg",
  "3932": "being,Ġ",
  "3933": "whatĠtheyĠ",
  "3934": "pra",
  "3935": "ersĠandĠ",
  "3936": "largelyĠ",
  "3937": "ival",
  "3938": "..",
  "3939": "youth",
  "3940": "Chr",
  "3941": "ture",
  "3942": "leftĠ",
  "3943": "onĠthe\n",
  "3944": "amountĠofĠ",
  "3945": "clearĠ",
  "3946": "educat",
  "3947": "that,Ġ",
  "3948": "themselves",
  "3949": "ĠthatĠitĠ",
  "3950": "cal",
  "3951": "asĠa\n",
  "3952": "thing,Ġ",
  "3953": "people",
  "3954": "ecu",
  "3955": "out,Ġ",
  "3956": ".ĠThereĠareĠ",
  "3957": "subj",
  "3958": "havi",
  "3959": "childhood",
  "3960": "sourceĠofĠ",
  "3961": "preh",
  "3962": "explain",
  "3963": "strain",
  "3964": "conventionalĠ",
  "3965": "insp",
  "3966": "board",
  "3967": "task",
  "3968": ".ĠDoĠ",
  "3969": "time,Ġ",
  "3970": "Ex",
  "3971": "animalĠ",
  "3972": "overĠtheĠ",
  "3973": "edĠonĠtheĠ",
  "3974": "ĠthanĠtheĠ",
  "3975": "surfac",
  "3976": "asĠtheyĠ",
  "3977": "itĠisĠtheĠ",
  "3978": "rich",
  "3979": "domĠ",
  "3980": "bur",
  "3981": "fri",
  "3982": "hypoth",
  "3983": "Itali",
  "3984": "bran",
  "3985": "surelyĠ",
  "3986": "permissionĠ",
  "3987": "taxĠ",
  "3988": "reve",
  "3989": "tool",
  "3990": "ProjectĠGutenbergĠ",
  "3991": "restric",
  "3992": "mĠ",
  "3993": "GHT",
  "3994": "ations\n",
  "3995": ".\n\nF",
  "3996": "opin",
  "3997": "forĠtheirĠ",
  "3998": "will,Ġ",
  "3999": "through",
  "4000": "error",
  "4001": "erefore\n",
  "4002": ".ĠInĠthisĠ",
  "4003": "astr",
  "4004": "nurser",
  "4005": "carefullyĠ",
  "4006": "somewhatĠ",
  "4007": "manner",
  "4008": "ksĠ",
  "4009": "groundĠ",
  "4010": "enabl",
  "4011": "sĠonĠ",
  "4012": "fash",
  "4013": "iceĠ",
  "4014": "viv",
  "4015": "hasĠnoĠ",
  "4016": "whileĠtheĠ",
  "4017": "ueĠ",
  "4018": "attitudeĠ",
  "4019": "bir",
  "4020": "becauseĠtheyĠ",
  "4021": "hou",
  "4022": "rac",
  "4023": "progress",
  "4024": ",Ġtherefor",
  "4025": "estig",
  "4026": "engag",
  "4027": "prepare",
  "4028": "e,Ġand\n",
  "4029": "stag",
  "4030": "impulseĠ",
  "4031": "noĠoneĠ",
  "4032": "mistak",
  "4033": "ingĠhisĠ",
  "4034": "similarĠ",
  "4035": "historyĠ",
  "4036": "sortĠ",
  "4037": "endsĠ",
  "4038": "ĠtheĠchildĠ",
  "4039": "tendsĠtoĠ",
  "4040": "rationalĠ",
  "4041": "tow",
  "4042": "cred",
  "4043": ".ĠOurĠ",
  "4044": "humanĠnatureĠ",
  "4045": "death",
  "4046": ".ĠFrom",
  "4047": "changeĠ",
  "4048": "inspire",
  "4049": "ationsĠofĠ",
  "4050": ",ĠareĠ",
  "4051": "weak",
  "4052": "econom",
  "4053": "ciseĠ",
  "4054": "thingĠthatĠ",
  "4055": "accordanceĠ",
  "4056": "toĠbeĠaĠ",
  "4057": "dic",
  "4058": "ed;Ġ",
  "4059": "yearĠ",
  "4060": "waterĠ",
  "4061": "light",
  "4062": "studyĠofĠ",
  "4063": "reality,Ġ",
  "4064": "compe",
  "4065": "heart",
  "4066": "responsibil",
  "4067": "orĠthatĠ",
  "4068": "consciouslyĠ",
  "4069": "expansiveĠ",
  "4070": "latter",
  "4071": "lic",
  "4072": "OUĠ",
  "4073": "LicenseĠ",
  "4074": "ProjectĠGutenberg™ĠelectronicĠwork",
  "4075": "refun",
  "4076": ".\n\n1.E.",
  "4077": "conceiveĠ",
  "4078": "rain",
  "4079": "|///",
  "4080": ".Ġ\"",
  "4081": "salvationĠ",
  "4082": "inferenceĠ",
  "4083": "(_a_)Ġ",
  "4084": "traitsĠ",
  "4085": "re-",
  "4086": "CON",
  "4087": "YĠ",
  "4088": "ES",
  "4089": "girlĠ",
  "4090": "for\ntheĠ",
  "4091": "spr",
  "4092": "education\n",
  "4093": "hund",
  "4094": "shouldĠnotĠbeĠ",
  "4095": "few",
  "4096": "such\n",
  "4097": "indis",
  "4098": "boundĠ",
  "4099": "sĠhaveĠ",
  "4100": "senseĠofĠtheĠ",
  "4101": ".\nButĠ",
  "4102": "satisfac",
  "4103": ".ĠWhen",
  "4104": "sortĠofĠ",
  "4105": "fill",
  "4106": "e\ntoĠ",
  "4107": "thatĠweĠ",
  "4108": "ureĠofĠ",
  "4109": "EnglishĠ",
  "4110": ":\n\n",
  "4111": "voc",
  "4112": "number",
  "4113": "seemsĠtoĠ",
  "4114": "wonder",
  "4115": "Ġthemselves",
  "4116": "talkĠ",
  "4117": "indulg",
  "4118": "andĠmoreĠ",
  "4119": "tive\n",
  "4120": "tableĠ",
  "4121": "n\n",
  "4122": "throughĠtheĠ",
  "4123": "dogma",
  "4124": "yal",
  "4125": "innerĠ",
  "4126": "clearlyĠ",
  "4127": "izedĠ",
  "4128": "behavi",
  "4129": "impos",
  "4130": "ounc",
  "4131": "beyondĠ",
  "4132": "mass",
  "4133": "tot",
  "4134": "furn",
  "4135": ",Ġ19",
  "4136": "toĠthinkĠ",
  "4137": "exerciseĠ",
  "4138": "ignĠ",
  "4139": "takeĠtheĠ",
  "4140": "experience,Ġ",
  "4141": "kĠofĠ",
  "4142": "facil",
  "4143": "heĠcanĠ",
  "4144": "erĠofĠtheĠ",
  "4145": "ection,Ġ",
  "4146": ".ĠItĠis\n",
  "4147": "shar",
  "4148": "destin",
  "4149": "itĠtheĠ",
  "4150": "philosophyĠ",
  "4151": "primaryĠ",
  "4152": "ibl",
  "4153": "EnglandĠ",
  "4154": "paper",
  "4155": "isĠthe\n",
  "4156": "link",
  "4157": ",Ġthen",
  "4158": "infinit",
  "4159": "reveal",
  "4160": "ativelyĠ",
  "4161": "_)",
  "4162": "centralĠ",
  "4163": "UtopiaĠ",
  "4164": "ALĠ",
  "4165": "ĠthatĠtheyĠ",
  "4166": "schools",
  "4167": "former",
  "4168": "s\ntheĠ",
  "4169": "comeĠtoĠ",
  "4170": "wel",
  "4171": "apartĠ",
  "4172": "ence,ĠandĠ",
  "4173": "awareĠ",
  "4174": "beforeĠtheĠ",
  "4175": "aimĠ",
  "4176": "sense,Ġ",
  "4177": "perce",
  "4178": "valuableĠ",
  "4179": "acquireĠ",
  "4180": "educator",
  "4181": "atĠthe\n",
  "4182": "ed\ntoĠ",
  "4183": "sĠto\n",
  "4184": "e\nthatĠ",
  "4185": "completelyĠ",
  "4186": "ed.\n",
  "4187": "edĠofĠ",
  "4188": "difficul",
  "4189": "teachingĠofĠ",
  "4190": "investig",
  "4191": "less\n",
  "4192": "cases,Ġ",
  "4193": "understood",
  "4194": "shownĠ",
  "4195": "eness",
  "4196": "heav",
  "4197": "errorĠ",
  "4198": "aĠfewĠ",
  "4199": "miser",
  "4200": ".ĠItĠisĠnotĠ",
  "4201": "formationĠofĠ",
  "4202": "negl",
  "4203": "pat",
  "4204": "evolu",
  "4205": "a,Ġ",
  "4206": "falseĠ",
  "4207": "[3",
  "4208": "dueĠtoĠ",
  "4209": "imit",
  "4210": "showĠ",
  "4211": "heĠmustĠ",
  "4212": "proceed",
  "4213": "command",
  "4214": "effort",
  "4215": "isĠsoĠ",
  "4216": "us\n",
  "4217": "whoĠisĠ",
  "4218": "you\n",
  "4219": "fruit",
  "4220": "emanci",
  "4221": "been",
  "4222": "altern",
  "4223": "sufficientĠ",
  "4224": "ideĠ",
  "4225": "establish",
  "4226": "objectsĠ",
  "4227": "fallĠ",
  "4228": "precis",
  "4229": "myster",
  "4230": "hib",
  "4231": "towardsĠtheĠ",
  "4232": "ed.\n\n",
  "4233": "competi",
  "4234": "ean",
  "4235": "limitsĠ",
  "4236": "it,ĠandĠ",
  "4237": "on\ntheĠ",
  "4238": "consciousness",
  "4239": "mannerĠ",
  "4240": "withinĠtheĠ",
  "4241": "accessĠtoĠ",
  "4242": "EM",
  "4243": "finalĠ",
  "4244": "expressĠ",
  "4245": "schemeĠofĠ",
  "4246": "select",
  "4247": "atoryĠ",
  "4248": "otherĠwords,Ġ",
  "4249": "(_b_)Ġ",
  "4250": "syllab",
  "4251": "]\n\n[Sidenote:Ġ",
  "4252": "availableĠ",
  "4253": "AS",
  "4254": "institu",
  "4255": "loveĠofĠ",
  "4256": "tionĠof\n",
  "4257": "till",
  "4258": "toĠhaveĠ",
  "4259": "curricul",
  "4260": "isĠoneĠ",
  "4261": "IĠthink",
  "4262": "pret",
  "4263": "edĠorĠ",
  "4264": "desirableĠ",
  "4265": "doubt",
  "4266": "fatalĠ",
  "4267": "ach",
  "4268": "mother",
  "4269": "involvesĠ",
  "4270": "ferĠ",
  "4271": "eless",
  "4272": "mainlyĠ",
  "4273": ".ĠIfĠweĠ",
  "4274": "it;Ġ",
  "4275": "food",
  "4276": "else",
  "4277": "utter",
  "4278": "communityĠ",
  "4279": "wouldĠnotĠ",
  "4280": "diseas",
  "4281": "ilĠ",
  "4282": "ty,Ġ",
  "4283": "willĠhaveĠ",
  "4284": "phy",
  "4285": "bringsĠ",
  "4286": "itiveĠ",
  "4287": "advanc",
  "4288": "typicalĠ",
  "4289": "elimin",
  "4290": "ting\n",
  "4291": "absur",
  "4292": "too",
  "4293": "whereĠtheĠ",
  "4294": "antas",
  "4295": "eyĠ",
  "4296": "manifest",
  "4297": "corrup",
  "4298": "needĠofĠ",
  "4299": "properlyĠ",
  "4300": "connectedĠ",
  "4301": "controll",
  "4302": "situationĠ",
  "4303": "esĠwhichĠ",
  "4304": "scep",
  "4305": "done",
  "4306": "ing-",
  "4307": "all,Ġ",
  "4308": "parentalĠ",
  "4309": "weĠshallĠ",
  "4310": "describ",
  "4311": "basisĠofĠ",
  "4312": "maxim",
  "4313": "promot",
  "4314": "courageĠ",
  "4315": "forĠhimself",
  "4316": "than\n",
  "4317": "compreh",
  "4318": "tive",
  "4319": "new\n",
  "4320": "gettingĠ",
  "4321": "fromĠaĠ",
  "4322": "reflectionĠ",
  "4323": "until",
  "4324": "situation",
  "4325": "direction",
  "4326": "edĠwithĠtheĠ",
  "4327": "grown-upĠ",
  "4328": "case,Ġ",
  "4329": "spac",
  "4330": "vo",
  "4331": "sud",
  "4332": "edĠoutĠ",
  "4333": "atĠfirstĠ",
  "4334": "geĠ",
  "4335": "tibleĠ",
  "4336": "right\n",
  "4337": "non-",
  "4338": "replac",
  "4339": "creat",
  "4340": "requirement",
  "4341": ",Ġ9",
  "4342": "custom",
  "4343": "indeed,Ġ",
  "4344": "sigh",
  "4345": "conductĠ",
  "4346": "erebyĠ",
  "4347": "period",
  "4348": "endow",
  "4349": "exclud",
  "4350": "pupils",
  "4351": "subjectsĠ",
  "4352": "ofĠthought",
  "4353": "modif",
  "4354": "unf",
  "4355": "cribeĠ",
  "4356": ",ĠbyĠ",
  "4357": "meansĠthatĠ",
  "4358": "complyĠ",
  "4359": "equival",
  "4360": "language",
  "4361": "consciousness,Ġ",
  "4362": "distrustĠ",
  "4363": "ofĠtheĠspirit",
  "4364": ".\n\n[Sidenote:ĠTheĠ",
  "4365": "eBookĠ",
  "4366": "EC",
  "4367": "ENT",
  "4368": "whom",
  "4369": "effortĠ",
  "4370": "byĠmeansĠofĠ",
  "4371": "shipĠ",
  "4372": "If",
  "4373": "ourĠownĠ",
  "4374": "desireĠforĠ",
  "4375": "considerableĠ",
  "4376": "ultim",
  "4377": "appli",
  "4378": "sion,Ġ",
  "4379": "becauseĠitĠisĠ",
  "4380": "womenĠ",
  "4381": "y;Ġ",
  "4382": "existenceĠ",
  "4383": "advoc",
  "4384": "parti",
  "4385": "exceptionalĠ",
  "4386": "by\ntheĠ",
  "4387": "essiveĠ",
  "4388": "iesĠandĠ",
  "4389": "understoodĠ",
  "4390": "mental\n",
  "4391": "workingĠ",
  "4392": "ful\n",
  "4393": "Ph",
  "4394": "men,Ġ",
  "4395": "asser",
  "4396": "whoĠhaveĠ",
  "4397": ".ĠForĠtheĠ",
  "4398": "revol",
  "4399": "healthĠ",
  "4400": ".ĠThis\n",
  "4401": "touch",
  "4402": "speci",
  "4403": "Foundation",
  "4404": "remark",
  "4405": "rap",
  "4406": "water",
  "4407": "hon",
  "4408": "suit",
  "4409": "ily\n",
  "4410": "atmosphereĠ",
  "4411": "childhoodĠ",
  "4412": "regardedĠ",
  "4413": "analog",
  "4414": "findsĠ",
  "4415": "on,Ġ",
  "4416": "trulyĠ",
  "4417": "man,Ġ",
  "4418": "thing\n",
  "4419": "tic\n",
  "4420": "bes",
  "4421": "auti",
  "4422": "Ġthings,Ġ",
  "4423": "acceptĠ",
  "4424": "perman",
  "4425": "taskĠ",
  "4426": "befor",
  "4427": "struggl",
  "4428": "fromĠhisĠ",
  "4429": "poet",
  "4430": "distinctionĠ",
  "4431": "hadĠtoĠ",
  "4432": "e,ĠitĠ",
  "4433": "admit",
  "4434": "intelligentĠ",
  "4435": "universalĠ",
  "4436": "exactĠ",
  "4437": "remainsĠ",
  "4438": "iffer",
  "4439": "secre",
  "4440": "openĠ",
  "4441": ".Ġ(",
  "4442": "isĠnotĠaĠ",
  "4443": "possibilityĠofĠ",
  "4444": "numberĠ",
  "4445": "s,Ġand\n",
  "4446": "taught",
  "4447": "obst",
  "4448": ".ĠDoĠnotĠ",
  "4449": "ven",
  "4450": "canĠdoĠ",
  "4451": "six",
  "4452": "suggestionĠ",
  "4453": ".ĠOf",
  "4454": "numer",
  "4455": "anĠin",
  "4456": "readilyĠ",
  "4457": "inĠtheseĠ",
  "4458": ",ĠthenĠ",
  "4459": "promp",
  "4460": "endeav",
  "4461": "asĠheĠ",
  "4462": "schoolĠisĠ",
  "4463": "orĠisĠ",
  "4464": "subtl",
  "4465": "ĠthatĠweĠ",
  "4466": ",Ġthat\n",
  "4467": "libr",
  "4468": "lect",
  "4469": "inĠeachĠ",
  "4470": "moneyĠ",
  "4471": "\nĠĠĠĠĠĠĠĠ",
  "4472": "iesĠofĠtheĠ",
  "4473": "volunte",
  "4474": "CE",
  "4475": "fig",
  "4476": "thorough",
  "4477": "efin",
  "4478": "synthes",
  "4479": "demon",
  "4480": "demonstr",
  "4481": ",\"Ġ\"",
  "4482": "PublicĠ",
  "4483": "inward",
  "4484": "etern",
  "4485": "StatesĠ",
  "4486": "partsĠofĠtheĠ",
  "4487": ".ĠYouĠmayĠ",
  "4488": "iĠ",
  "4489": "CHOO",
  "4490": ".ĠMore",
  "4491": "extrem",
  "4492": "driv",
  "4493": "defect",
  "4494": "seemsĠ",
  "4495": "who",
  "4496": "fiveĠ",
  "4497": "knowledgeĠisĠ",
  "4498": "years",
  "4499": "carryĠ",
  "4500": "questionĠofĠ",
  "4501": "evenĠtheĠ",
  "4502": "sea",
  "4503": "demo",
  "4504": "onlyĠtheĠ",
  "4505": "aristo",
  "4506": "aticĠ",
  "4507": "excell",
  "4508": "canĠonlyĠ",
  "4509": "though",
  "4510": "forth",
  "4511": "mal",
  "4512": "givingĠ",
  "4513": "spell",
  "4514": "termsĠofĠtheĠ",
  "4515": "away",
  "4516": ".ĠOfĠ",
  "4517": "educatedĠ",
  "4518": "forĠhim",
  "4519": "ĠthisĠisĠ",
  "4520": "teen",
  "4521": "fashion",
  "4522": "enoughĠ",
  "4523": "appearĠ",
  "4524": "influenc",
  "4525": "purposeĠofĠ",
  "4526": "y.\n",
  "4527": "brief",
  "4528": "preventĠ",
  "4529": "techniqu",
  "4530": "learning",
  "4531": "asĠaĠrul",
  "4532": "duringĠtheĠ",
  "4533": "gradu",
  "4534": "purposeĠ",
  "4535": "intens",
  "4536": "clin",
  "4537": "it.ĠTheĠ",
  "4538": "instanc",
  "4539": "had\n",
  "4540": "but",
  "4541": "ers",
  "4542": "itĠandĠ",
  "4543": ".\n\nItĠisĠ",
  "4544": "citi",
  "4545": "difficultĠtoĠ",
  "4546": "trainingĠofĠ",
  "4547": "edĠtoĠbeĠ",
  "4548": "exactlyĠ",
  "4549": "specul",
  "4550": "\nwhichĠ",
  "4551": "ity,\n",
  "4552": "aband",
  "4553": ".\n\nWeĠ",
  "4554": "blameĠ",
  "4555": "ic\n",
  "4556": "standard",
  "4557": "ectionĠofĠ",
  "4558": "loseĠ",
  "4559": "necessaryĠtoĠ",
  "4560": "developĠ",
  "4561": "cases",
  "4562": "to,Ġ",
  "4563": "repres",
  "4564": "Al",
  "4565": "co-oper",
  "4566": ".ĠHenceĠ",
  "4567": ",ĠtheyĠareĠ",
  "4568": "two\n",
  "4569": "adul",
  "4570": "signif",
  "4571": "defini",
  "4572": "lifeĠisĠ",
  "4573": "curiosityĠ",
  "4574": "whether",
  "4575": "phraseĠ",
  "4576": "twent",
  "4577": "much\n",
  "4578": "environmentĠ",
  "4579": "extr",
  "4580": "overcom",
  "4581": "surround",
  "4582": "aĠnewĠ",
  "4583": "notĠaĠ",
  "4584": "gard",
  "4585": "way,Ġ",
  "4586": ".ĠOr",
  "4587": "necessityĠ",
  "4588": "visibleĠ",
  "4589": "fromĠthatĠ",
  "4590": "together",
  "4591": "ĠthroughĠtheĠ",
  "4592": ".[1",
  "4593": "airĠ",
  "4594": "imaginativeĠ",
  "4595": "did",
  "4596": "eat",
  "4597": "truc",
  "4598": "solic",
  "4599": "fellow",
  "4600": "whatĠitĠ",
  "4601": "yiel",
  "4602": "right",
  "4603": "grav",
  "4604": "augh",
  "4605": "lostĠ",
  "4606": "sĠofĠthe\n",
  "4607": "resor",
  "4608": "natureĠofĠtheĠ",
  "4609": "essenceĠ",
  "4610": "aĠthingĠ",
  "4611": "depth",
  "4612": "measureĠ",
  "4613": "meaningĠofĠ",
  "4614": ".ĠEx",
  "4615": "expens",
  "4616": "educativeĠ",
  "4617": "subjectiv",
  "4618": "eeĠ",
  "4619": "notĠprotect",
  "4620": "ProjectĠGutenberg™ĠLicenseĠ",
  "4621": "ProjectĠGutenberg™\nelectronicĠwork",
  "4622": "refundĠ",
  "4623": "1.E.1",
  "4624": "ĠYouĠ",
  "4625": "SectionĠ",
  "4626": "1.F.3",
  "4627": "TRA",
  "4628": "RES",
  "4629": "11",
  "4630": "Ġ_",
  "4631": "sĠitselfĠ",
  "4632": "umul",
  "4633": "systematic",
  "4634": "Ġthings",
  "4635": "subject-matter",
  "4636": "PublicĠSchool",
  "4637": "regim",
  "4638": "salvation",
  "4639": "spiritual\n",
  "4640": "hisĠteacherĠ",
  "4641": "self-expression",
  "4642": "many-",
  "4643": "EgeriaĠ",
  "4644": "sensu",
  "4645": ",ĠthatĠis,Ġ",
  "4646": "Ġf.\n\nĠĠ",
  "4647": ",Ġ8",
  "4648": "whatso",
  "4649": "English",
  "4650": "BER",
  "4651": "INĠ",
  "4652": "SCHOO",
  "4653": "aĠgreatĠ",
  "4654": "ress",
  "4655": "s,ĠandĠtheĠ",
  "4656": "bre",
  "4657": "successfulĠ",
  "4658": "my\n",
  "4659": "theore",
  "4660": "y\nandĠ",
  "4661": "universal",
  "4662": "secureĠ",
  "4663": "implic",
  "4664": "principlesĠ",
  "4665": "makeĠtheĠ",
  "4666": "associatedĠwithĠ",
  "4667": "se,Ġ",
  "4668": "separateĠ",
  "4669": "intrinsicĠ",
  "4670": "wrongĠ",
  "4671": "”,Ġ",
  "4672": "itari",
  "4673": "whenĠitĠisĠ",
  "4674": "dark",
  "4675": "trueĠthatĠ",
  "4676": "pens",
  "4677": "es;Ġ",
  "4678": "waysĠ",
  "4679": "years,Ġ",
  "4680": "auto",
  "4681": "carefulĠ",
  "4682": "tivelyĠ",
  "4683": "affair",
  "4684": "chapterĠ",
  "4685": "and\ntheĠ",
  "4686": "stupid",
  "4687": "heldĠ",
  "4688": "pati",
  "4689": ".ĠWhatĠisĠ",
  "4690": "youngerĠ",
  "4691": "Christian",
  "4692": "farĠfromĠ",
  "4693": "ble",
  "4694": "apparent",
  "4695": ".ĠEveryĠ",
  "4696": "qualityĠ",
  "4697": ".ĠAnĠ",
  "4698": "iesĠtoĠ",
  "4699": "edĠonĠ",
  "4700": "Church",
  "4701": "bat",
  "4702": "scal",
  "4703": "standar",
  "4704": "actionsĠ",
  "4705": "ingĠthem",
  "4706": "takingĠ",
  "4707": "itĠasĠ",
  "4708": "esĠinĠtheĠ",
  "4709": "aĠgoodĠ",
  "4710": "perfectĠ",
  "4711": "treatedĠ",
  "4712": "esĠisĠ",
  "4713": "ingĠanyĠ",
  "4714": "sig",
  "4715": "signĠ",
  "4716": "believeĠthatĠ",
  "4717": "ox",
  "4718": "tive,Ġ",
  "4719": "cot",
  "4720": "information,Ġ",
  "4721": "caseĠofĠ",
  "4722": ".ĠEvenĠ",
  "4723": "dig",
  "4724": ".ĠTheĠchildĠ",
  "4725": "actuallyĠ",
  "4726": "atĠonceĠ",
  "4727": "personsĠ",
  "4728": "provideĠ",
  "4729": "providedĠ",
  "4730": "walk",
  "4731": "subsequ",
  "4732": "allĠtheseĠ",
  "4733": "Or",
  "4734": "picture",
  "4735": "big",
  "4736": "acl",
  "4737": "inĠnoĠ",
  "4738": "onc",
  "4739": ",ĠsoĠ",
  "4740": "lip",
  "4741": "along",
  "4742": "es\ntheĠ",
  "4743": "instruction",
  "4744": "failure",
  "4745": "constructiveĠ",
  "4746": "ed--",
  "4747": "oralĠ",
  "4748": "cutĠ",
  "4749": "mayĠbe",
  "4750": "permit",
  "4751": "two",
  "4752": "halfĠ",
  "4753": "eful",
  "4754": ".ĠWhenĠtheĠ",
  "4755": "thinking",
  "4756": "body,Ġ",
  "4757": "sympatheticĠ",
  "4758": "external",
  "4759": "lookingĠ",
  "4760": "outĠtheĠ",
  "4761": "conditions",
  "4762": "victim",
  "4763": "jud",
  "4764": "discoverĠ",
  "4765": "absoluteĠ",
  "4766": "below",
  "4767": "work\n",
  "4768": "short",
  "4769": "speech",
  "4770": "actĠofĠ",
  "4771": "ui",
  "4772": "ectĠtheĠ",
  "4773": "dĠandĠ",
  "4774": "—theĠ",
  "4775": "devic",
  "4776": "thought,Ġ",
  "4777": "workĠofĠ",
  "4778": "(_c",
  "4779": "arrest",
  "4780": "doctrineĠofĠ",
  "4781": "_regim",
  "4782": ",Ġ10",
  "4783": "copyĠ",
  "4784": "youĠwillĠ",
  "4785": "Dis",
  "4786": "VI",
  "4787": "\n\n\n\n\n",
  "4788": "likeĠtheĠ",
  "4789": "proveĠ",
  "4790": "tooĠoftenĠ",
  "4791": ".\n\nIĠ",
  "4792": "menĠandĠ",
  "4793": "system,Ġ",
  "4794": "absorb",
  "4795": "ationĠtoĠ",
  "4796": "edĠthe\n",
  "4797": "soĠasĠtoĠ",
  "4798": "weĠcannotĠ",
  "4799": "geni",
  "4800": "sakeĠofĠ",
  "4801": "tendencyĠtoĠ",
  "4802": "boysĠ",
  "4803": "eless,Ġ",
  "4804": "ation,ĠtheĠ",
  "4805": "shouldĠbe\n",
  "4806": "just",
  "4807": "isĠnotĠtheĠ",
  "4808": "thatĠisĠ",
  "4809": "schools,Ġ",
  "4810": "y\nofĠ",
  "4811": "iss",
  "4812": "meetĠ",
  "4813": "dealĠofĠ",
  "4814": "ever-",
  "4815": "major",
  "4816": "physi",
  "4817": "mustĠnotĠbeĠ",
  "4818": "sĠare\n",
  "4819": "imagination",
  "4820": "whenĠitĠ",
  "4821": "half",
  "4822": "forĠthisĠ",
  "4823": "impossibleĠtoĠ",
  "4824": "air",
  "4825": "tic,Ġ",
  "4826": "Pr",
  "4827": "infant",
  "4828": "atĠallĠ",
  "4829": "training,Ġ",
  "4830": "wick",
  "4831": "ldĠ",
  "4832": "delightĠ",
  "4833": ",ĠandĠtoĠ",
  "4834": "citiz",
  "4835": "edĠby",
  "4836": "fromĠitsĠ",
  "4837": "analysisĠ",
  "4838": "side",
  "4839": "damag",
  "4840": "orĠinĠ",
  "4841": "\n\nTHEĠ",
  "4842": "orough",
  "4843": "intellectual\n",
  "4844": "whichĠwasĠ",
  "4845": "arc",
  "4846": "has\nbeenĠ",
  "4847": "Ġthese\n",
  "4848": "theyĠhaveĠ",
  "4849": "kindsĠofĠ",
  "4850": "achieveĠ",
  "4851": "iorĠ",
  "4852": "esĠorĠ",
  "4853": "brut",
  "4854": "cram",
  "4855": "with\ntheĠ",
  "4856": "heĠhas\n",
  "4857": "intelligence",
  "4858": ".\nH",
  "4859": "consideredĠ",
  "4860": "oryĠ",
  "4861": "connectionĠwithĠ",
  "4862": "cend",
  "4863": "ationsĠareĠ",
  "4864": "imper",
  "4865": ".ĠThereĠisĠnoĠ",
  "4866": "ive\n",
  "4867": "enlarg",
  "4868": "capacityĠforĠ",
  "4869": "toler",
  "4870": "bitr",
  "4871": "growsĠ",
  "4872": "ĠthereĠareĠ",
  "4873": "excit",
  "4874": "whatĠis\n",
  "4875": "make\n",
  "4876": "ative",
  "4877": "atedĠandĠ",
  "4878": "\ninĠ",
  "4879": "attend",
  "4880": "serious",
  "4881": "graspĠ",
  "4882": "enoughĠtoĠ",
  "4883": "succeed",
  "4884": "action,Ġ",
  "4885": "somethingĠthatĠ",
  "4886": "nearlyĠ",
  "4887": "accustom",
  "4888": "him\n",
  "4889": "tin",
  "4890": "ĠthingĠ",
  "4891": "canĠbe\n",
  "4892": "play,Ġ",
  "4893": "truthful",
  "4894": "unableĠtoĠ",
  "4895": "satisfi",
  "4896": "seen,Ġ",
  "4897": "destruc",
  "4898": "goalĠ",
  "4899": "ingĠtheirĠ",
  "4900": "obsc",
  "4901": ".e",
  "4902": "e\nofĠtheĠ",
  "4903": "hasĠbeen\n",
  "4904": "inte",
  "4905": "integr",
  "4906": "ties",
  "4907": "toĠourĠ",
  "4908": "sĠhisĠ",
  "4909": "expectedĠtoĠ",
  "4910": "friend",
  "4911": "sil",
  "4912": ".ĠAndĠtheĠ",
  "4913": "mul",
  "4914": "provideĠaĠ",
  "4915": "awak",
  "4916": "readyĠtoĠ",
  "4917": "hypothes",
  "4918": "forĠitĠ",
  "4919": "study",
  "4920": "_ĠandĠ",
  "4921": "brid",
  "4922": "enu",
  "4923": "commer",
  "4924": "ense",
  "4925": "Pl",
  "4926": "logical",
  "4927": "accumul",
  "4928": "information",
  "4929": "meaning,Ġ",
  "4930": "preparationĠ",
  "4931": "characteristicĠ",
  "4932": "infiniteĠ",
  "4933": "verb",
  "4934": "gramm",
  "4935": "upperĠ",
  "4936": "|ĠĠĠĠĠĠĠĠĠĠĠĠ",
  "4937": "blind",
  "4938": "andĠ\"",
  "4939": "mustĠneedsĠ",
  "4940": "many-sid",
  "4941": "_see",
  "4942": "becoming",
  "4943": "andĠwithĠ",
  "4944": "20",
  "4945": "who,Ġ",
  "4946": "satisfactor",
  "4947": "outlookĠ",
  "4948": "independentĠ",
  "4949": "promin",
  "4950": "edĠbyĠaĠ",
  "4951": ".ĠWhat",
  "4952": "benef",
  "4953": "additionĠ",
  "4954": "practiceĠ",
  "4955": "ontess",
  "4956": "ontessori",
  "4957": "gent",
  "4958": "senseĠofĠtheĠword",
  "4959": "account",
  "4960": "meansĠtoĠ",
  "4961": "anĠendĠ",
  "4962": "tĠofĠaĠ",
  "4963": "clou",
  "4964": "enĠandĠ",
  "4965": "where\n",
  "4966": "utilitari",
  "4967": "eableĠ",
  "4968": "absenceĠofĠ",
  "4969": "shadow",
  "4970": "industrialĠ",
  "4971": "remember",
  "4972": "intrinsicallyĠ",
  "4973": "afford",
  "4974": "whatĠIĠ",
  "4975": "withoutĠtheĠ",
  "4976": "whichĠitĠisĠ",
  "4977": "underst",
  "4978": "ing.ĠTheĠ",
  "4979": "enessĠofĠ",
  "4980": "methodsĠofĠ",
  "4981": "told",
  "4982": "conclud",
  "4983": ".”Ġ",
  "4984": "manag",
  "4985": "eĠto\n",
  "4986": "oppositeĠ",
  "4987": "tradition",
  "4988": "mayĠbe\n",
  "4989": "toĠseeĠ",
  "4990": "asĠtoĠtheĠ",
  "4991": ".ĠChildr",
  "4992": "diver",
  "4993": "s\nthatĠ",
  "4994": "made\n",
  "4995": "Chin",
  "4996": "arri",
  "4997": "reachĠ",
  "4998": "preced",
  "4999": "scarc",
  "5000": "sentiment",
  "5001": "ym",
  "5002": "whole,Ġ",
  "5003": "compos",
  "5004": "ordinarilyĠ",
  "5005": "trust",
  "5006": "ed\nbyĠ",
  "5007": "aĠveryĠ",
  "5008": "objectĠofĠ",
  "5009": "enableĠ",
  "5010": "ingsĠofĠ",
  "5011": "rateĠ",
  "5012": "toĠthemĠ",
  "5013": "never\n",
  "5014": "sĠatĠ",
  "5015": "arbitr",
  "5016": "artificialĠ",
  "5017": "indiffer",
  "5018": "vill",
  "5019": "emancip",
  "5020": ".ĠOnlyĠ",
  "5021": "embod",
  "5022": "infantĠ",
  "5023": "muchĠmoreĠ",
  "5024": "routineĠ",
  "5025": "sixĠ",
  "5026": "thatĠitĠ",
  "5027": "asĠsoonĠ",
  "5028": "comparisonĠ",
  "5029": "return",
  "5030": "reflect",
  "5031": "beyondĠtheĠ",
  "5032": "tionĠofĠaĠ",
  "5033": "daysĠofĠ",
  "5034": "ating\n",
  "5035": "ousĠandĠ",
  "5036": "existsĠ",
  "5037": "failureĠ",
  "5038": "forĠgrant",
  "5039": "spok",
  "5040": "midd",
  "5041": "zz",
  "5042": "shop",
  "5043": "multitud",
  "5044": "student",
  "5045": "allĠthe\n",
  "5046": "use",
  "5047": "beauti",
  "5048": "1)Ġ",
  "5049": "resear",
  "5050": "resolv",
  "5051": "weigh",
  "5052": "UniversityĠ",
  "5053": "ISĠ",
  "5054": "nameĠ",
  "5055": "onĠwhichĠ",
  "5056": "AL",
  "5057": ".ĠInformationĠ",
  "5058": "statementĠ",
  "5059": "text",
  "5060": "manĠisĠ",
  "5061": "machiner",
  "5062": "culture,Ġ",
  "5063": "developmentĠofĠtheĠ",
  "5064": "inquiryĠ",
  "5065": "|\nĠĠĠĠĠĠĠĠĠĠĠĠĠĠĠĠĠĠĠĠĠĠĠĠĠĠĠĠĠĠĠĠ",
  "5066": "whatĠheĠisĠ",
  "5067": "land",
  "5068": "studentĠ",
  "5069": "inwardĠ",
  "5070": "civilis",
  "5071": "inspect",
  "5072": ",\"ĠandĠ",
  "5073": "dual",
  "5074": "(asĠ",
  "5075": "growth,Ġ",
  "5076": "'Ġ",
  "5077": "self-realisationĠ",
  "5078": ".Ġ_TheĠ",
  "5079": ",]\n\n",
  "5080": "meanings",
  "5081": "_see_Ġ",
  "5082": "EducationĠ",
  "5083": "giveĠitĠ",
  "5084": "terms\n",
  "5085": "inĠtheĠUnitedĠStat",
  "5086": "ST",
  "5087": "ĠANDĠ",
  "5088": "UL",
  "5089": "usĠtheĠ",
  "5090": "reform",
  "5091": "stepĠ",
  "5092": "politic",
  "5093": "philosophy",
  "5094": "may,Ġ",
  "5095": "good\n",
  "5096": "outsideĠtheĠ",
  "5097": "deriveĠ",
  "5098": "ismĠandĠ",
  "5099": ".ĠHow",
  "5100": "nativeĠ",
  "5101": "Montessori",
  "5102": "pon",
  "5103": "myself",
  "5104": "?\n",
  "5105": "inĠturnĠ",
  "5106": "_ĠofĠ",
  "5107": "hous",
  "5108": "quot",
  "5109": "accomplish",
  "5110": "iesĠareĠ",
  "5111": "sĠwhichĠareĠ",
  "5112": "twel",
  "5113": ",\nbutĠ",
  "5114": "happyĠ",
  "5115": "ension",
  "5116": "history,Ġ",
  "5117": "inĠandĠ",
  "5118": "entĠinĠ",
  "5119": ".ĠOnĠtheĠ",
  "5120": "neverĠbeĠ",
  "5121": "usĠofĠ",
  "5122": "teenĠ",
  "5123": ",00",
  "5124": "learnĠtoĠ",
  "5125": "doubtĠ",
  "5126": ".ĠYetĠ",
  "5127": "LetĠusĠ",
  "5128": "thatĠheĠ",
  "5129": "becomeĠaĠ",
  "5130": "about\n",
  "5131": "hun",
  "5132": "known",
  "5133": "ireĠ",
  "5134": "England",
  "5135": ":\n\nĠĠ",
  "5136": "ited\n",
  "5137": "Mr",
  "5138": "things",
  "5139": "instincts",
  "5140": "alsoĠtheĠ",
  "5141": "tyr",
  "5142": "effortsĠ",
  "5143": "sure",
  "5144": "akeĠ",
  "5145": ".ĠAllĠ",
  "5146": "studyĠ",
  "5147": "Ġthought,Ġ",
  "5148": "spiritĠofĠ",
  "5149": "actingĠ",
  "5150": "Know",
  "5151": ",ĠandĠisĠ",
  "5152": "counter",
  "5153": "istr",
  "5154": "standardĠofĠ",
  "5155": "eatĠ",
  "5156": "calcul",
  "5157": "withĠthem",
  "5158": "knowĠtheĠ",
  "5159": "misfortun",
  "5160": "amongĠtheĠ",
  "5161": "ham",
  "5162": "mir",
  "5163": "ationĠof\n",
  "5164": "easyĠ",
  "5165": "occurr",
  "5166": "phen",
  "5167": "omen",
  "5168": "ed,ĠisĠ",
  "5169": "correctĠ",
  "5170": "aler",
  "5171": "evidenceĠ",
  "5172": "erĠorĠ",
  "5173": "e,ĠtoĠ",
  "5174": "returnĠ",
  "5175": "phraseĠ“",
  "5176": "s\nareĠ",
  "5177": "supposedĠtoĠ",
  "5178": "orm",
  "5179": "handl",
  "5180": "inĠtheĠsameĠ",
  "5181": ",ĠtheĠchildĠ",
  "5182": "earlierĠ",
  "5183": "allowĠ",
  "5184": ";ĠbutĠtheĠ",
  "5185": "occasionĠ",
  "5186": "behindĠ",
  "5187": "onĠthisĠ",
  "5188": "adjust",
  "5189": "thre",
  "5190": "himself,Ġ",
  "5191": "toĠgiveĠ",
  "5192": "topic",
  "5193": "letĠusĠ",
  "5194": "AsĠ",
  "5195": "orĠevenĠ",
  "5196": "applyĠ",
  "5197": ",ĠandĠinĠ",
  "5198": "anarch",
  "5199": "i.e",
  "5200": "toĠitsĠ",
  "5201": "italĠ",
  "5202": "ofĠtheĠschool",
  "5203": "forĠitsĠ",
  "5204": "tureĠ",
  "5205": "enterĠ",
  "5206": "cook",
  "5207": "sakeĠ",
  "5208": "onĠhisĠ",
  "5209": "andĠtoĠ",
  "5210": "soundĠ",
  "5211": "Ac",
  "5212": "impliesĠ",
  "5213": "teacher,Ġ",
  "5214": "language,Ġ",
  "5215": "exclusiv",
  "5216": "constitu",
  "5217": "facultyĠ",
  "5218": "depart",
  "5219": "copy,Ġ",
  "5220": "web",
  "5221": "ersĠofĠ",
  "5222": "INGĠOFĠ",
  "5223": "aud",
  "5224": "Education",
  "5225": "(_c_)Ġ",
  "5226": "constitutesĠ",
  "5227": "dulyĠ",
  "5228": "\"theĠ",
  "5229": "philosopher",
  "5230": "self-expressionĠ",
  "5231": "evolv",
  "5232": "s;ĠandĠ",
  "5233": "pre-",
  "5234": "Ġf.;\nĠĠĠĠ",
  "5235": ".ĠSoĠthatĠ",
  "5236": "realisticĠ",
  "5237": "UnitedĠStatesĠ",
  "5238": "whatsoever",
  "5239": "atĠwww.gutenberg.org",
  "5240": "checkĠtheĠ",
  "5241": "Au",
  "5242": "***",
  "5243": "PROJ",
  "5244": "PROJEC",
  "5245": "PROJECTĠ",
  "5246": "PROJECTĠG",
  "5247": "PROJECTĠGUT",
  "5248": "PROJECTĠGUTEN",
  "5249": "PROJECTĠGUTENBER",
  "5250": "PROJECTĠGUTENBERG",
  "5251": ".\nĠĠ",
  "5252": "AGE",
  "5253": "PAR",
  "5254": "15",
  "5255": "ĠĠĠĠĠĠĠĠĠĠĠĠĠĠĠĠĠĠĠĠĠĠĠĠĠĠ",
  "5256": "y--",
  "5257": "neighb",
  "5258": "afterĠtheĠ",
  "5259": "relev",
  "5260": "wher",
  "5261": ",Ġthough",
  "5262": "scop",
  "5263": "educational",
  "5264": "should,Ġ",
  "5265": "shouldĠnotĠ",
  "5266": "udeĠ",
  "5267": "noneĠ",
  "5268": "levelĠofĠ",
  "5269": "careful",
  "5270": "ifĠitĠisĠ",
  "5271": "inĠfactĠ",
  "5272": "fromĠtheirĠ",
  "5273": ".\n\nThereĠisĠ",
  "5274": "y,ĠbutĠ",
  "5275": "ictĠ",
  "5276": "essenceĠofĠ",
  "5277": "kingĠ",
  "5278": "tili",
  "5279": "attach",
  "5280": "triv",
  "5281": "traditionalĠ",
  "5282": "advanceĠ",
  "5283": "ff",
  "5284": "ences,Ġ",
  "5285": "forĠthem",
  "5286": "man\n",
  "5287": "subordin",
  "5288": "that\ntheĠ",
  "5289": "evenĠthoughĠ",
  "5290": "delight",
  "5291": ".ĠMostĠ",
  "5292": "foodĠ",
  "5293": "terror",
  "5294": "whichĠwillĠ",
  "5295": "forget",
  "5296": "many\n",
  "5297": "erveĠ",
  "5298": "balanceĠ",
  "5299": "vocab",
  "5300": "automa",
  "5301": "importance",
  "5302": "something\n",
  "5303": "sister",
  "5304": "anĠtoĠ",
  "5305": "cat",
  "5306": "es--",
  "5307": "easyĠtoĠ",
  "5308": "edĠthatĠtheĠ",
  "5309": "SchoolĠ",
  "5310": "?ĠWhatĠ",
  "5311": "verseĠ",
  "5312": "!Ġ",
  "5313": "Christ",
  "5314": "s,ĠofĠ",
  "5315": "particularlyĠ",
  "5316": "itĠinĠtheĠ",
  "5317": "design",
  "5318": "eness,Ġ",
  "5319": ".[2",
  "5320": "considerationsĠ",
  "5321": "case",
  "5322": "conveni",
  "5323": "roc",
  "5324": "wrong",
  "5325": "emphasiz",
  "5326": "affectionĠ",
  "5327": "heartĠ",
  "5328": "GreatĠ",
  "5329": "neverth",
  "5330": "temper",
  "5331": "Cath",
  "5332": "wereĠnotĠ",
  "5333": "sĠfromĠ",
  "5334": "adapt",
  "5335": "from\ntheĠ",
  "5336": ".ĠAsĠtheĠ",
  "5337": "ality,Ġ",
  "5338": "severalĠ",
  "5339": "reasoningĠ",
  "5340": "authorityĠ",
  "5341": "cogn",
  "5342": "novel",
  "5343": "tionallyĠ",
  "5344": "habitĠofĠ",
  "5345": "mattersĠ",
  "5346": ".ĠI\n",
  "5347": ".\n\nIfĠ",
  "5348": "ness\n",
  "5349": "physical\n",
  "5350": "So",
  "5351": "Ġthat,Ġ",
  "5352": "bul",
  "5353": "popularĠ",
  "5354": "resist",
  "5355": "could\n",
  "5356": "eĠthe\n",
  "5357": "withĠwhichĠ",
  "5358": "will\nbeĠ",
  "5359": "potenti",
  "5360": "difficultyĠ",
  "5361": ".ĠTo",
  "5362": "intelligi",
  "5363": "ax",
  "5364": "old,Ġ",
  "5365": "given",
  "5366": ".ĠItĠisĠaĠ",
  "5367": "ariseĠ",
  "5368": "generallyĠ",
  "5369": "primitiveĠ",
  "5370": "last",
  "5371": "slow",
  "5372": "heĠwouldĠ",
  "5373": "ump",
  "5374": "instruction,Ġ",
  "5375": "wo",
  "5376": "failĠtoĠ",
  "5377": "hasĠnotĠ",
  "5378": "manip",
  "5379": "manipul",
  "5380": "govern",
  "5381": "provisionĠ",
  "5382": "geom",
  "5383": "geometr",
  "5384": "ance\n",
  "5385": "yearsĠofĠ",
  "5386": "siz",
  "5387": ",Ġ_",
  "5388": "argument",
  "5389": "ateĠandĠ",
  "5390": "quar",
  "5391": "punishmentĠ",
  "5392": "rav",
  "5393": "join",
  "5394": "orĠotherĠ",
  "5395": "prejud",
  "5396": "eredĠ",
  "5397": "iddenĠ",
  "5398": "itselfĠtoĠ",
  "5399": "ĠinĠtheĠ",
  "5400": "previousĠ",
  "5401": "ScienceĠ",
  "5402": "rowĠ",
  "5403": "seriesĠofĠ",
  "5404": "3)Ġ",
  "5405": "lecture",
  "5406": "sĠofĠourĠ",
  "5407": "Re",
  "5408": "Law",
  "5409": "notĠprotectedĠbyĠ",
  "5410": "FoundationĠ",
  "5411": "distributeĠ",
  "5412": "royal",
  "5413": "eneralĠ",
  "5414": "licens",
  "5415": "trademarkĠ",
  "5416": "practicallyĠ",
  "5417": "REA",
  "5418": "s,ĠbyĠ",
  "5419": "complyĠwithĠ",
  "5420": "termsĠofĠthisĠagreement",
  "5421": ",ĠyouĠmustĠ",
  "5422": "copiesĠofĠ",
  "5423": "ProjectĠGutenbergĠLiteraryĠArchiveĠFound",
  "5424": "ProjectĠGutenberg™Ġwork",
  "5425": "•ĠYouĠ",
  "5426": "toĠtheĠProjectĠGutenberg",
  "5427": ".\n\n1.F.",
  "5428": "WAR",
  "5429": "WARR",
  "5430": "WARRAN",
  "5431": "AM",
  "5432": "disclaim",
  "5433": "ĠOR",
  "5434": "ĠORĠ",
  "5435": "62",
  "5436": "ate.\n\n",
  "5437": "\nĠĠĠĠĠĠĠĠĠĠĠĠĠĠĠĠĠĠĠĠĠĠĠĠĠĠĠĠĠĠĠĠ",
  "5438": "figure",
  "5439": "searchĠ",
  "5440": "closeĠ",
  "5441": "acquaintanceĠ",
  "5442": "processesĠ",
  "5443": "art,Ġ",
  "5444": "drawnĠ",
  "5445": ".ĠNow",
  "5446": "experimentalĠ",
  "5447": "|ĠĠĠ|ĠĠĠ",
  "5448": "subject-matterĠ",
  "5449": "esĠofĠhisĠ",
  "5450": "\"--",
  "5451": "frag",
  "5452": "Egeria",
  "5453": "TRAIN",
  "5454": "THOU",
  "5455": "THOUGHT",
  "5456": "consideredĠasĠ",
  "5457": "atĠnoĠ",
  "5458": "beforeĠus",
  "5459": ",Ġ20",
  "5460": "TEDĠ",
  "5461": "CI",
  "5462": "anx",
  "5463": ":\n",
  "5464": "like",
  "5465": "neighbour",
  "5466": "suffic",
  "5467": "elementary\n",
  "5468": "pag",
  "5469": "sphereĠofĠ",
  "5470": "haveĠbeen\n",
  "5471": "importanceĠofĠ",
  "5472": "junc",
  "5473": "al,ĠandĠ",
  "5474": "opinion",
  "5475": "propos",
  "5476": "e,ĠinĠ",
  "5477": "educationĠofĠ",
  "5478": "character,Ġ",
  "5479": "endĠofĠtheĠ",
  "5480": "istsĠ",
  "5481": "ingĠinĠtheĠ",
  "5482": "insistĠ",
  "5483": "uniform",
  "5484": "shareĠ",
  "5485": "possession",
  "5486": "soleĠ",
  "5487": "aimĠofĠ",
  "5488": "sĠthatĠareĠ",
  "5489": "educationĠisĠtoĠ",
  "5490": "IĠdoĠnotĠ",
  "5491": "revolu",
  "5492": "createĠ",
  "5493": "bring",
  "5494": "dimin",
  "5495": "conqu",
  "5496": "ForĠ",
  "5497": "asĠthe\n",
  "5498": "imm",
  "5499": "languag",
  "5500": "ifiedĠ",
  "5501": ",Ġtherefore,Ġ",
  "5502": "learntĠ",
  "5503": "resultĠofĠ",
  "5504": "transl",
  "5505": "itĠwillĠbeĠ",
  "5506": "becameĠ",
  "5507": "rulesĠ",
  "5508": "skillĠinĠ",
  "5509": "ing--",
  "5510": "ofĠcourseĠ",
  "5511": "degreeĠofĠ",
  "5512": "sympathyĠ",
  "5513": "Ġthan\n",
  "5514": "past",
  "5515": "bearĠ",
  "5516": "another,Ġ",
  "5517": "more",
  "5518": "considerĠtheĠ",
  "5519": "limb",
  "5520": "purpose",
  "5521": "closelyĠ",
  "5522": "psychologicalĠ",
  "5523": "wishĠ",
  "5524": "powerĠtoĠ",
  "5525": "affordĠ",
  "5526": "conduct",
  "5527": "esĠtoĠbeĠ",
  "5528": "evidentĠ",
  "5529": ".ĠAc",
  "5530": "ative\n",
  "5531": "fool",
  "5532": "successful",
  "5533": "life,ĠandĠ",
  "5534": "ing,ĠtheĠ",
  "5535": "scarcelyĠ",
  "5536": "onlyĠaĠ",
  "5537": "Knowledg",
  "5538": "namely",
  "5539": "advantag",
  "5540": "betterĠthanĠ",
  "5541": "metĠ",
  "5542": "further",
  "5543": "possessĠ",
  "5544": "degreeĠ",
  "5545": "emotionalĠ",
  "5546": "beingsĠ",
  "5547": ".ĠV",
  "5548": "forĠexample,Ġ",
  "5549": "fromĠwhichĠ",
  "5550": "seemsĠtoĠbeĠ",
  "5551": "incident",
  "5552": "atĠthisĠ",
  "5553": "andĠinĠ",
  "5554": "obvious",
  "5555": "embr",
  "5556": "things,Ġ",
  "5557": "passĠ",
  "5558": "phenomen",
  "5559": "sti",
  "5560": "moveĠ",
  "5561": "observation,Ġ",
  "5562": "compelledĠtoĠ",
  "5563": "edĠitsĠ",
  "5564": "necessary",
  "5565": "ofĠtheir\n",
  "5566": ".\nS",
  "5567": "detailĠ",
  "5568": ".ĠNotĠ",
  "5569": "profoundĠ",
  "5570": "wheneverĠ",
  "5571": "itĠbeĠ",
  "5572": "facts",
  "5573": "4]Ġ",
  "5574": "experiencesĠ",
  "5575": "essionĠofĠ",
  "5576": "umbl",
  "5577": "theirĠownĠ",
  "5578": "becauseĠofĠ",
  "5579": ".ĠJ",
  "5580": "sĠbyĠ",
  "5581": "up\n",
  "5582": "umb",
  "5583": "brok",
  "5584": "forĠanĠ",
  "5585": "everĠtheĠ",
  "5586": "brother",
  "5587": "allĠotherĠ",
  "5588": "earthĠ",
  "5589": "prohib",
  "5590": "directedĠ",
  "5591": "house",
  "5592": "proportionĠ",
  "5593": "s,ĠinĠ",
  "5594": "s,ĠaĠ",
  "5595": "giveĠaĠ",
  "5596": "artisticĠ",
  "5597": "doĠso",
  "5598": "offer",
  "5599": "instinct,Ġ",
  "5600": "attemptĠ",
  "5601": "labour",
  "5602": "ingĠitsĠ",
  "5603": "seldomĠ",
  "5604": ".ĠItĠisĠtheĠ",
  "5605": "fixedĠ",
  "5606": "is,ĠasĠ",
  "5607": "mustĠbe\n",
  "5608": "ceaseĠtoĠ",
  "5609": "pressureĠ",
  "5610": "visit",
  "5611": "booksĠ",
  "5612": "proof",
  "5613": "ifĠyouĠ",
  "5614": "criticalĠ",
  "5615": "toĠhim",
  "5616": "ine,Ġ",
  "5617": "each\n",
  "5618": "itĠthatĠ",
  "5619": "ifĠnotĠ",
  "5620": "dict",
  "5621": "rud",
  "5622": "approachĠ",
  "5623": "cover",
  "5624": "_,ĠandĠ",
  "5625": "extend",
  "5626": "erĠtheĠ",
  "5627": "one-",
  "5628": "cost",
  "5629": ".ĠEachĠ",
  "5630": "prescrib",
  "5631": "division",
  "5632": "rhy",
  "5633": "scen",
  "5634": "chem",
  "5635": "all-",
  "5636": "stead",
  "5637": "Ox",
  "5638": "needĠnotĠ",
  "5639": "spiritĠisĠ",
  "5640": "sĠofĠlife",
  "5641": "convers",
  "5642": "EĠTH",
  "5643": "\norĠ",
  "5644": "anĠindividualĠ",
  "5645": "fromĠthisĠ",
  "5646": "ATĠ",
  "5647": "AB",
  "5648": "essi",
  "5649": "short,Ġ",
  "5650": "onĠtheĠpartĠofĠtheĠ",
  "5651": ";ĠandĠth",
  "5652": "]\n\nTh",
  "5653": "branch",
  "5654": "|ĠĠ",
  "5655": "asĠsuchĠ",
  "5656": "nour",
  "5657": "preciseĠ",
  "5658": "\"\n",
  "5659": "bind",
  "5660": "lof",
  "5661": "presum",
  "5662": "hind",
  "5663": "respectiveĠ",
  "5664": "aes",
  "5665": "denot",
  "5666": "dataĠ",
  "5667": "furnish",
  "5668": "pupil'sĠ",
  "5669": "(_ii_)Ġ",
  "5670": "empiricalĠ",
  "5671": "easeĠ",
  "5672": "IL",
  "5673": "lack",
  "5674": ".ĠMyĠ",
  "5675": "avoidĠ",
  "5676": "rawĠ",
  "5677": "sexĠ",
  "5678": "yet\n",
  "5679": "heĠmayĠ",
  "5680": "isĠthatĠtheĠ",
  "5681": "levelĠ",
  "5682": "itĠfromĠ",
  "5683": "present,Ġ",
  "5684": "henceĠ",
  "5685": "destroyĠ",
  "5686": "childrenĠofĠ",
  "5687": "gainĠ",
  "5688": "forĠtheĠsakeĠofĠ",
  "5689": ";ĠforĠ",
  "5690": "confl",
  "5691": "trainĠ",
  "5692": "same\n",
  "5693": "taughtĠtoĠ",
  "5694": ".\n\nN",
  "5695": "broad",
  "5696": "whichĠcanĠbeĠ",
  "5697": "producesĠ",
  "5698": "read,Ġ",
  "5699": "utili",
  "5700": "starv",
  "5701": "an,Ġ",
  "5702": "sinceĠtheĠ",
  "5703": "appliedĠ",
  "5704": "berĠ",
  "5705": "presuppos",
  "5706": "supre",
  "5707": "andĠtheyĠ",
  "5708": "otherĠhand,Ġ",
  "5709": "possessionĠ",
  "5710": "atĠtheĠsameĠ",
  "5711": "earn",
  "5712": "oppositionĠ",
  "5713": "Dant",
  "5714": "evil,Ġ",
  "5715": "thirdĠ",
  "5716": "anceĠandĠ",
  "5717": "fairlyĠ",
  "5718": "appar",
  "5719": "apparat",
  "5720": "imaginationĠ",
  "5721": "stimulusĠ",
  "5722": "GreekĠ",
  "5723": "should",
  "5724": "poetr",
  "5725": "great\n",
  "5726": "fterĠ",
  "5727": "triedĠtoĠ",
  "5728": "ated,Ġ",
  "5729": "ied\n",
  "5730": "mustĠhaveĠ",
  "5731": "acquisi",
  "5732": "pedagogicalĠ",
  "5733": ".\nM",
  "5734": ".ĠAr",
  "5735": "ingĠit,Ġ",
  "5736": "eĠwithĠ",
  "5737": "absolutelyĠ",
  "5738": "conform",
  "5739": "see\n",
  "5740": "tooĠmuchĠ",
  "5741": "tedĠbyĠtheĠ",
  "5742": "wee",
  "5743": "e.ĠButĠ",
  "5744": "noticeĠ",
  "5745": "prevent",
  "5746": ".ĠMoreover",
  "5747": "moral\n",
  "5748": "hat",
  "5749": "ignorantĠ",
  "5750": "ess,ĠandĠ",
  "5751": "conceptionĠofĠtheĠ",
  "5752": "whatĠwasĠ",
  "5753": "similar",
  "5754": "outward",
  "5755": "sĠshouldĠbeĠ",
  "5756": "officialĠ",
  "5757": "destroy",
  "5758": "progressĠ",
  "5759": "atmospher",
  "5760": "Cathol",
  "5761": "Ġtheolog",
  "5762": "isĠmoreĠ",
  "5763": "permanentĠ",
  "5764": "obe",
  "5765": "bull",
  "5766": ".ĠA\n",
  "5767": "strictlyĠ",
  "5768": "emin",
  "5769": "compati",
  "5770": "mustĠnotĠ",
  "5771": "rebel",
  "5772": "easi",
  "5773": "s_Ġ",
  "5774": "warm",
  "5775": "cott",
  "5776": "mind,Ġ",
  "5777": "ChurchĠ",
  "5778": "speakĠofĠ",
  "5779": "adultsĠ",
  "5780": "hasĠtoĠ",
  "5781": "isĠun",
  "5782": "ifyĠ",
  "5783": "ably\n",
  "5784": "atedĠbyĠtheĠ",
  "5785": "saf",
  "5786": "hes",
  "5787": "correct",
  "5788": "themĠtoĠ",
  "5789": "firstĠyear",
  "5790": "tionsĠofĠ",
  "5791": "alternativeĠ",
  "5792": "becomes\n",
  "5793": "cannot\n",
  "5794": "sw",
  "5795": "respons",
  "5796": "matureĠ",
  "5797": "sligh",
  "5798": "s\nwhichĠ",
  "5799": "stre",
  "5800": "she",
  "5801": "elementĠ",
  "5802": "parentsĠandĠ",
  "5803": "incid",
  "5804": ".ĠIfĠheĠ",
  "5805": "moun",
  "5806": "valueĠofĠ",
  "5807": ".ĠTheyĠareĠ",
  "5808": "Rom",
  "5809": "forĠitsĠownĠ",
  "5810": "arithmeticĠ",
  "5811": "fromĠanĠ",
  "5812": "enforc",
  "5813": "conceivedĠ",
  "5814": "strengthĠ",
  "5815": "andĠthatĠtheĠ",
  "5816": "sĠthe\n",
  "5817": "speechĠ",
  "5818": "entĠandĠ",
  "5819": "setĠforthĠinĠ",
  "5820": ",ĠhisĠ",
  "5821": "relationsĠ",
  "5822": "contem",
  "5823": "riseĠ",
  "5824": "ofĠtheĠchild",
  "5825": "complic",
  "5826": "identif",
  "5827": "El",
  "5828": "prejudic",
  "5829": "lay",
  "5830": "natureĠofĠ",
  "5831": "accident",
  "5832": "relationshipĠ",
  "5833": "haveĠnotĠ",
  "5834": ",ĠandĠaĠ",
  "5835": "00Ġ",
  "5836": "intoĠthe\n",
  "5837": "statesĠ",
  "5838": "instrument",
  "5839": "applicableĠ",
  "5840": "specializ",
  "5841": "disco",
  "5842": "discoveryĠ",
  "5843": "definitelyĠ",
  "5844": "ofĠtheĠschoolĠ",
  "5845": "obstacl",
  "5846": "country,Ġ",
  "5847": "Ob",
  "5848": "colleg",
  "5849": "Oxfor",
  "5850": "dim",
  "5851": "itĠmayĠbeĠ",
  "5852": "atingĠtheĠ",
  "5853": "(andĠ",
  "5854": "free\n",
  "5855": "indicateĠ",
  "5856": "collectionĠ",
  "5857": "complianceĠ",
  "5858": "additionalĠ",
  "5859": "LITY",
  "5860": "PRES",
  "5861": "7\n\nĠĠ",
  "5862": "said,Ġ",
  "5863": "social\n",
  "5864": "over-",
  "5865": "intimateĠ",
  "5866": "reci",
  "5867": "renew",
  "5868": "influencesĠ",
  "5869": "indefin",
  "5870": "asĠsuch",
  "5871": "previouslyĠ",
  "5872": "drawĠ",
  "5873": "rand",
  "5874": "|ĠĠĠĠĠĠ",
  "5875": "soil",
  "5876": "consecu",
  "5877": "fosterĠ",
  "5878": "unfold",
  "5879": "educationĠgivenĠ",
  "5880": "Depar",
  "5881": "Depart",
  "5882": ":Ġ\"",
  "5883": "actsĠ",
  "5884": "secularĠ",
  "5885": "passingĠ",
  "5886": "aĠ\"",
  "5887": "hisĠpupil",
  "5888": "faculties,Ġ",
  "5889": "unceas",
  "5890": "ofĠthought,Ġ",
  "5891": "observationsĠ",
  "5892": "ItalianĠ",
  "5893": "Ill",
  "5894": "TES",
  "5895": "10",
  "5896": "PL",
  "5897": "ouseĠ",
  "5898": "seesĠ",
  "5899": "priv",
  "5900": "beliefsĠ",
  "5901": ".ĠWhereĠ",
  "5902": "producedĠ",
  "5903": "Ġtheore",
  "5904": "distinguishĠ",
  "5905": "educationĠinĠ",
  "5906": "esc",
  "5907": "outsideĠ",
  "5908": "Loc",
  "5909": "wentĠ",
  "5910": "belongĠ",
  "5911": "toĠwhichĠ",
  "5912": "exceptĠbyĠ",
  "5913": "perceiv",
  "5914": "results,Ġ",
  "5915": "edĠtoĠaĠ",
  "5916": "ornam",
  "5917": "whole\n",
  "5918": "estĠandĠ",
  "5919": "preserv",
  "5920": "urg",
  "5921": "ĠtheĠsameĠ",
  "5922": "justifi",
  "5923": "eigh",
  "5924": "whenĠaĠ",
  "5925": "“TheĠ",
  "5926": "was",
  "5927": "ingĠthatĠtheĠ",
  "5928": "uselessĠ",
  "5929": "Greek",
  "5930": "hither",
  "5931": "classes",
  "5932": "menĠwhoĠ",
  "5933": "th,Ġ",
  "5934": "music",
  "5935": "perpet",
  "5936": "ious",
  "5937": ".ĠIĠhaveĠ",
  "5938": "incap",
  "5939": "there\n",
  "5940": "Fr",
  "5941": "boyĠorĠ",
  "5942": "little\n",
  "5943": "special\n",
  "5944": "yearsĠag",
  "5945": "ĠthreeĠ",
  "5946": "writeĠ",
  "5947": "wayĠtoĠ",
  "5948": "school-",
  "5949": "explic",
  "5950": "obey",
  "5951": "himselfĠtoĠ",
  "5952": "forb",
  "5953": "gotĠ",
  "5954": "kit",
  "5955": "aptĠtoĠ",
  "5956": "suitableĠ",
  "5957": "apprehend",
  "5958": "s,ĠnotĠ",
  "5959": "spontaneouslyĠ",
  "5960": ".ĠFor\n",
  "5961": "prais",
  "5962": "remoteĠ",
  "5963": "retain",
  "5964": "iedĠinĠ",
  "5965": "oseĠofĠ",
  "5966": "pir",
  "5967": "hardĠ",
  "5968": "thetic",
  "5969": "righ",
  "5970": "agon",
  "5971": "infanc",
  "5972": "societyĠ",
  "5973": "watch",
  "5974": "atĠlastĠ",
  "5975": "agger",
  "5976": "s.ĠThisĠ",
  "5977": "attention",
  "5978": "familyĠ",
  "5979": "ed.ĠButĠ",
  "5980": "esĠthe\n",
  "5981": "when,Ġ",
  "5982": "sĠandĠtheĠ",
  "5983": "attack",
  "5984": "etc.",
  "5985": "mindĠisĠ",
  "5986": "thatĠtheyĠ",
  "5987": "battl",
  "5988": "dueĠ",
  "5989": "consequencesĠ",
  "5990": "teacherĠisĠ",
  "5991": "oom",
  "5992": "vigorousĠ",
  "5993": "objectiv",
  "5994": "ableĠto\n",
  "5995": "condem",
  "5996": "satisf",
  "5997": "obviouslyĠ",
  "5998": "sour",
  "5999": "enterpris",
  "6000": "elf",
  "6001": "reason,Ġ",
  "6002": "tivenessĠ",
  "6003": "defineĠ",
  "6004": "demandsĠ",
  "6005": "is\nnotĠ",
  "6006": "lawsĠofĠ",
  "6007": "shall\n",
  "6008": "atĠlea",
  "6009": "happinessĠ",
  "6010": "tedĠintoĠ",
  "6011": "stra",
  "6012": "leastĠ",
  "6013": "just\n",
  "6014": "also\n",
  "6015": "inĠlaterĠ",
  "6016": "dealingĠ",
  "6017": "ĠthereĠisĠnoĠ",
  "6018": "this",
  "6019": "recogni",
  "6020": "bot",
  "6021": ".ĠItsĠ",
  "6022": "amus",
  "6023": "har",
  "6024": "movingĠ",
  "6025": "foreignĠ",
  "6026": "given\n",
  "6027": "attemptsĠ",
  "6028": "experienceĠofĠ",
  "6029": "ingĠto\n",
  "6030": "ĠorĠ",
  "6031": "5]Ġ",
  "6032": "mas",
  "6033": "joy",
  "6034": "ofĠanyĠ",
  "6035": "ify",
  "6036": "steri",
  "6037": "impressionĠ",
  "6038": "insightĠ",
  "6039": "IĠwasĠ",
  "6040": "moreĠandĠmoreĠ",
  "6041": ";ĠtoĠ",
  "6042": "enceĠandĠ",
  "6043": "ank",
  "6044": "agg",
  "6045": "always\n",
  "6046": "accompan",
  "6047": "remind",
  "6048": "gamesĠ",
  "6049": "builtĠ",
  "6050": "allĠthatĠ",
  "6051": "?ĠH",
  "6052": "varietyĠofĠ",
  "6053": "inĠsoĠfarĠasĠ",
  "6054": "spl",
  "6055": "savageĠ",
  "6056": "saidĠtoĠ",
  "6057": "nationalĠ",
  "6058": "position,Ġ",
  "6059": "whetherĠtheĠ",
  "6060": "innat",
  "6061": "distributionĠofĠ",
  "6062": ",ĠthereĠareĠ",
  "6063": "ty\n",
  "6064": ".ĠInde",
  "6065": "first\n",
  "6066": "thereĠisĠaĠ",
  "6067": "saw",
  "6068": "contrad",
  "6069": "ation.ĠTheĠ",
  "6070": "dealingĠwithĠ",
  "6071": "so-",
  "6072": "enligh",
  "6073": "enlighten",
  "6074": "beginĠtoĠ",
  "6075": "withĠourĠ",
  "6076": "contempor",
  "6077": "probableĠ",
  "6078": "fit",
  "6079": "fulfil",
  "6080": "principleĠofĠ",
  "6081": "ofĠtheĠchildĠ",
  "6082": "toĠoneĠ",
  "6083": "solveĠ",
  "6084": "born",
  "6085": "root",
  "6086": "it,ĠtheĠ",
  "6087": "icĠandĠ",
  "6088": "esĠitsĠ",
  "6089": "ĠthatĠthe\n",
  "6090": "receivedĠ",
  "6091": "summ",
  "6092": "esom",
  "6093": "ofĠtheĠsameĠ",
  "6094": "ousand",
  "6095": "lawsĠ",
  "6096": "awaken",
  "6097": "class-",
  "6098": "ies\n",
  "6099": "concentr",
  "6100": "ousĠofĠ",
  "6101": "influenceĠofĠ",
  "6102": "LawĠ",
  "6103": "(2",
  "6104": ")\n",
  "6105": "(3)Ġ",
  "6106": "divisionĠ",
  "6107": "factsĠandĠ",
  "6108": ")ĠisĠ",
  "6109": "holder",
  "6110": "attitudeĠofĠ",
  "6111": "universi",
  "6112": "correl",
  "6113": ",ĠandĠsoĠ",
  "6114": "onlyĠbyĠ",
  "6115": "humanĠnature",
  "6116": "receiveĠ",
  "6117": ".\n\n[1",
  "6118": "derivativeĠ",
  "6119": "individual\n",
  "6120": "replacementĠ",
  "6121": "FORĠ",
  "6122": "TO",
  "6123": "ationsĠtoĠ",
  "6124": "spokenĠ",
  "6125": "gath",
  "6126": "ideas,Ġ",
  "6127": "direct",
  "6128": "asĠyetĠ",
  "6129": "tryingĠtoĠ",
  "6130": "whole",
  "6131": "Ġthat",
  "6132": "continuousĠ",
  "6133": "solution",
  "6134": "coher",
  "6135": "setsĠ",
  "6136": "entr",
  "6137": "meaning\n",
  "6138": "ofĠtheĠteacher",
  "6139": "ze",
  "6140": "logic",
  "6141": "Is",
  "6142": "Isra",
  "6143": "Div",
  "6144": "\"_",
  "6145": "Scrip",
  "6146": "responsibleĠ",
  "6147": "wordĠ_",
  "6148": "rhyth",
  "6149": "stepsĠ",
  "6150": "striveĠ",
  "6151": "discrimin",
  "6152": "ofĠthinkingĠ",
  "6153": "classific",
  "6154": "(_i_)Ġ",
  "6155": "life\n",
  "6156": "tions\n",
  "6157": "\n\n\n\n",
  "6158": "Illustr",
  "6159": "RI",
  "6160": "ITEDĠ",
  "6161": "14",
  "6162": "BE",
  "6163": "SION",
  "6164": "atĠhom",
  "6165": "asĠitsĠ",
  "6166": "them,Ġ",
  "6167": "graveĠ",
  "6168": "dependentĠ",
  "6169": "eu",
  "6170": "artifici",
  "6171": "essentiallyĠ",
  "6172": "weightĠ",
  "6173": "ias",
  "6174": "universityĠ",
  "6175": "directionĠ",
  "6176": "canĠonlyĠbeĠ",
  "6177": "opportunitiesĠ",
  "6178": "eĠhisĠ",
  "6179": "aristocrac",
  "6180": "Ev",
  "6181": "shouldĠhaveĠ",
  "6182": "richĠ",
  "6183": "asi",
  "6184": "experimentĠ",
  "6185": "nursery-",
  "6186": "ga",
  "6187": "definition",
  "6188": "machin",
  "6189": "cloth",
  "6190": "okeĠ",
  "6191": ",\nĠĠ",
  "6192": "Lat",
  "6193": "doesĠnot\n",
  "6194": ";ĠheĠ",
  "6195": "mi",
  "6196": "physical",
  "6197": "fores",
  "6198": "ant,Ġ",
  "6199": "idĠofĠ",
  "6200": "popul",
  "6201": "sufficientlyĠ",
  "6202": "measur",
  "6203": ".ĠNeverth",
  "6204": "dece",
  "6205": "icsĠ",
  "6206": "compul",
  "6207": "different\n",
  "6208": "usualĠ",
  "6209": "solelyĠ",
  "6210": "ently",
  "6211": "trainedĠ",
  "6212": "ĠĠĠĠĠĠĠĠĠĠ",
  "6213": "hasĠtoĠbeĠ",
  "6214": "very",
  "6215": "acquisitionĠofĠ",
  "6216": "done,Ġ",
  "6217": "e.\n\nTheĠ",
  "6218": "togeth",
  "6219": "almost\n",
  "6220": "record",
  "6221": "resid",
  "6222": "oseĠwhoĠ",
  "6223": "fullĠofĠ",
  "6224": "analogousĠ",
  "6225": "polic",
  "6226": "would",
  "6227": "appliesĠ",
  "6228": "likeĠaĠ",
  "6229": "exagger",
  "6230": "childrenĠtoĠ",
  "6231": "succe",
  "6232": "lieĠ",
  "6233": "awa",
  "6234": "learning,Ġ",
  "6235": "differencesĠ",
  "6236": "foundĠinĠ",
  "6237": "hadĠaĠ",
  "6238": "abandon",
  "6239": "sĠwhoĠ",
  "6240": "acquired",
  "6241": "defectĠ",
  "6242": "passesĠ",
  "6243": "himĠaĠ",
  "6244": "stri",
  "6245": "Protest",
  "6246": "mission",
  "6247": "surpris",
  "6248": "-of",
  "6249": "-of-",
  "6250": "requiresĠ",
  "6251": "continueĠtoĠ",
  "6252": "ĠthatĠaĠ",
  "6253": "road",
  "6254": "speaking,Ġ",
  "6255": "commit",
  "6256": "ourselves",
  "6257": "kill",
  "6258": "son",
  "6259": "makeĠaĠ",
  "6260": "fromĠanyĠ",
  "6261": "interestedĠinĠ",
  "6262": "ities\n",
  "6263": "usedĠtoĠ",
  "6264": "sĠareĠnotĠ",
  "6265": "urr",
  "6266": "hadĠnotĠ",
  "6267": "offic",
  "6268": "ation\nofĠ",
  "6269": "withĠanĠ",
  "6270": "Hum",
  "6271": "authority",
  "6272": "oneĠthingĠ",
  "6273": "leadsĠ",
  "6274": "isingĠ",
  "6275": "financi",
  "6276": "youĠhaveĠ",
  "6277": "ityĠtoĠ",
  "6278": "corn",
  "6279": "positionsĠ",
  "6280": "tly",
  "6281": "advantageĠ",
  "6282": "Soci",
  "6283": "hesit",
  "6284": "applicationĠ",
  "6285": "timeĠtoĠ",
  "6286": "eag",
  "6287": "begun",
  "6288": "beginsĠtoĠ",
  "6289": "kĠandĠ",
  "6290": "Ġthrough",
  "6291": "start",
  "6292": "orĠtoĠ",
  "6293": ".\nThisĠ",
  "6294": "ers,Ġ",
  "6295": "fieldĠ",
  "6296": "7]Ġ",
  "6297": "IĠam",
  "6298": "dealtĠ",
  "6299": "upĠtoĠ",
  "6300": "_ĠtheĠ",
  "6301": "Par",
  "6302": ".ĠWeĠmustĠ",
  "6303": ".\nInĠ",
  "6304": "passiveĠ",
  "6305": "orth",
  "6306": "orthod",
  "6307": "dy",
  "6308": "widelyĠ",
  "6309": "clim",
  "6310": "allĠhisĠ",
  "6311": ".\n\nItĠ",
  "6312": "fanc",
  "6313": "deĠ",
  "6314": "place,Ġ",
  "6315": "whichĠweĠareĠ",
  "6316": "sureĠ",
  "6317": "uralĠ",
  "6318": "uousĠ",
  "6319": "plantĠ",
  "6320": "ready\n",
  "6321": "fellow-",
  "6322": "thinking,Ġ",
  "6323": "machine",
  "6324": "haveĠtoĠbeĠ",
  "6325": "real\n",
  "6326": "atesĠtheĠ",
  "6327": "propertyĠ",
  "6328": "toĠtheseĠ",
  "6329": "dramaticĠ",
  "6330": "interestingĠ",
  "6331": "made",
  "6332": "words,Ġ",
  "6333": "profound",
  "6334": "partĠofĠthisĠ",
  "6335": "ing\ntoĠ",
  "6336": "ariesĠ",
  "6337": "withoutĠaĠ",
  "6338": "soĠthatĠtheĠ",
  "6339": "inclin",
  "6340": "ble,Ġ",
  "6341": "asĠlongĠ",
  "6342": "possible\n",
  "6343": "inĠwhichĠheĠ",
  "6344": "actor",
  "6345": "inevitablyĠ",
  "6346": "tileĠ",
  "6347": "existence",
  "6348": "efulĠ",
  "6349": "beingĠtheĠ",
  "6350": "inĠanyĠwayĠ",
  "6351": "matur",
  "6352": "isĠa\n",
  "6353": "deadlyĠ",
  "6354": "professionalĠ",
  "6355": "achievement",
  "6356": "geographyĠ",
  "6357": "dull",
  "6358": "ceptĠ",
  "6359": "_,\n",
  "6360": "understandingĠ",
  "6361": "WestĠ",
  "6362": "various\n",
  "6363": "selectionĠ",
  "6364": "outĠofĠtheĠ",
  "6365": "studiesĠ",
  "6366": "memory,Ġ",
  "6367": "seriouslyĠ",
  "6368": ",\ntoĠ",
  "6369": "ingĠitĠtoĠ",
  "6370": "vision",
  "6371": "philosophy,Ġ",
  "6372": "apparentĠ",
  "6373": "examination",
  "6374": "United\n",
  "6375": "iedĠandĠ",
  "6376": "agreeĠtoĠ",
  "6377": ".ĠIfĠanĠindividualĠ",
  "6378": "paragraphsĠ",
  "6379": "payment",
  "6380": "inĠwrit",
  "6381": "DAM",
  "6382": "Ref",
  "6383": "IND",
  "6384": "edĠtheĠworkĠ",
  "6385": "remainingĠ",
  "6386": "eralĠ",
  "6387": "ĠC",
  "6388": "modeĠofĠ",
  "6389": "umin",
  "6390": "recitationĠ",
  "6391": "unit",
  "6392": "soĠmanyĠ",
  "6393": "conceptionsĠ",
  "6394": "criticism",
  "6395": "horiz",
  "6396": ".\n\nAndĠ",
  "6397": "flex",
  "6398": "block",
  "6399": "---+---+---+---+",
  "6400": "--+",
  "6401": "grammarĠ",
  "6402": "Teach",
  "6403": "meantĠ",
  "6404": "arithmetic",
  "6405": "sayĠthatĠtheĠ",
  "6406": "nourish",
  "6407": "\"results",
  "6408": "glar",
  "6409": "syllabusĠ",
  "6410": "formulatedĠ",
  "6411": "philosophicalĠ",
  "6412": "sincer",
  "6413": "demor",
  "6414": "growthĠisĠ",
  "6415": "striv",
  "6416": "eyesĠ",
  "6417": "blindĠ",
  "6418": "fragment",
  "6419": "oces",
  "6420": "arithmeticalĠ",
  "6421": "yearlyĠ",
  "6422": "effectivelyĠ",
  "6423": "anĠobjectĠ",
  "6424": "everyĠotherĠ",
  "6425": "diction",
  "6426": "ofĠthinking",
  "6427": "antec",
  "6428": "anteced",
  "6429": ",Ġ5",
  "6430": "anyoneĠ",
  "6431": "costĠ",
  "6432": "line\n",
  "6433": "locatedĠinĠtheĠUnitedĠStat",
  "6434": "whereĠyouĠareĠ",
  "6435": "Rel",
  "6436": "16",
  "6437": "ĠE",
  "6438": "13",
  "6439": "TU",
  "6440": "CL",
  "6441": "depriv",
  "6442": "companion",
  "6443": "schoolsĠinĠ",
  "6444": "forĠhisĠ",
  "6445": ";Ġthe\n",
  "6446": "theĠsameĠ",
  "6447": "ofĠanĠ",
  "6448": "bearingĠ",
  "6449": "conjunc",
  "6450": "material\n",
  "6451": "thisĠisĠ",
  "6452": "enth",
  "6453": "called\n",
  "6454": "tendencyĠ",
  "6455": "democrac",
  "6456": "uponĠaĠ",
  "6457": "aptitud",
  "6458": ";ĠthisĠ",
  "6459": "someĠofĠtheĠ",
  "6460": "ornament",
  "6461": "part\n",
  "6462": ".\n\nM",
  "6463": "alĠandĠ",
  "6464": "pleasantĠ",
  "6465": "may",
  "6466": "findĠaĠ",
  "6467": ",ĠthereĠisĠnoĠ",
  "6468": "cloud",
  "6469": "history",
  "6470": "foo",
  "6471": "rareĠ",
  "6472": "substanti",
  "6473": "ite\n",
  "6474": "establishedĠ",
  "6475": "willingĠtoĠ",
  "6476": "reasonableĠ",
  "6477": "tly\n",
  "6478": "boyĠorĠgirlĠ",
  "6479": "indispens",
  "6480": "indispensableĠ",
  "6481": "to-dayĠ",
  "6482": "goingĠtoĠ",
  "6483": "aĠlargeĠ",
  "6484": "absurd",
  "6485": "setĠofĠ",
  "6486": "study,Ġ",
  "6487": "extremeĠ",
  "6488": "heĠwasĠ",
  "6489": "troubleĠ",
  "6490": "methods",
  "6491": "activities",
  "6492": "grand",
  "6493": ".ĠArno",
  "6494": "eanĠ",
  "6495": "aciousĠ",
  "6496": "fantas",
  "6497": "tookĠ",
  "6498": "inĠthem",
  "6499": "NoĠ",
  "6500": "creatingĠ",
  "6501": "sĠthatĠtheĠ",
  "6502": "suchĠanĠ",
  "6503": "wouldĠbe\n",
  "6504": "developingĠ",
  "6505": "virtueĠ",
  "6506": "someĠotherĠ",
  "6507": "impossible",
  "6508": "because\n",
  "6509": "magn",
  "6510": "iet",
  "6511": "thatĠofĠ",
  "6512": "dutyĠ",
  "6513": "StateĠ",
  "6514": "weĠcanĠ",
  "6515": "Jap",
  "6516": "ansĠ",
  "6517": "obl",
  "6518": "inven",
  "6519": "percent",
  "6520": "embl",
  "6521": "profess",
  "6522": "ethicalĠ",
  "6523": "question,Ġ",
  "6524": "neverthelessĠ",
  "6525": ",Ġthey\n",
  "6526": "before\n",
  "6527": "reasonsĠ",
  "6528": "cam",
  "6529": ".ĠTheirĠ",
  "6530": "emptĠ",
  "6531": "genuin",
  "6532": "supers",
  "6533": "otherwis",
  "6534": ";\nandĠ",
  "6535": "feeling",
  "6536": "afterward",
  "6537": "womanĠ",
  "6538": "andĠthusĠ",
  "6539": "interestĠinĠtheĠ",
  "6540": "absent",
  "6541": "cow",
  "6542": "observedĠ",
  "6543": "courage",
  "6544": "recentlyĠ",
  "6545": "studentsĠ",
  "6546": "consistĠ",
  "6547": "acquiringĠ",
  "6548": ".ĠChildrenĠ",
  "6549": "esĠhisĠ",
  "6550": "butĠaĠ",
  "6551": "unknownĠ",
  "6552": "behaviourĠ",
  "6553": "failsĠtoĠ",
  "6554": "taken",
  "6555": "many",
  "6556": "greatestĠ",
  "6557": "osp",
  "6558": "ifĠthisĠ",
  "6559": "noc",
  "6560": "alsoĠbeĠ",
  "6561": "entĠtoĠtheĠ",
  "6562": "which\nisĠ",
  "6563": ".)Ġ",
  "6564": "inquiry",
  "6565": "teachers",
  "6566": "eryĠ",
  "6567": "winĠ",
  "6568": "ionĠofĠ",
  "6569": "weĠshouldĠ",
  "6570": "hasĠitsĠ",
  "6571": "inĠotherĠ",
  "6572": "ulture",
  "6573": "itĠdoesĠ",
  "6574": "urb",
  "6575": "her\n",
  "6576": "vagueĠ",
  "6577": "childĠhasĠ",
  "6578": "activities,Ġ",
  "6579": "feelingsĠ",
  "6580": "inevitableĠ",
  "6581": "umĠofĠ",
  "6582": "roundĠ",
  "6583": "river",
  "6584": "ity.ĠTheĠ",
  "6585": "isesĠ",
  "6586": "useĠtoĠ",
  "6587": "rip",
  "6588": "fresh",
  "6589": ".ĠHe\n",
  "6590": "gradualĠ",
  "6591": "s)Ġ",
  "6592": "na",
  "6593": "9]Ġ",
  "6594": "warr",
  "6595": "listen",
  "6596": "needĠforĠ",
  "6597": "might\n",
  "6598": "nerv",
  "6599": "contrary,Ġ",
  "6600": "rid",
  "6601": "eith",
  "6602": "thingsĠthatĠ",
  "6603": "knowingĠ",
  "6604": "whereasĠ",
  "6605": "layĠ",
  "6606": "providingĠ",
  "6607": "ingĠupĠ",
  "6608": "believe,Ġ",
  "6609": "truth,Ġ",
  "6610": "Tru",
  "6611": "identific",
  "6612": "van",
  "6613": "ressĠ",
  "6614": "OneĠ",
  "6615": "tlessĠ",
  "6616": "enciesĠ",
  "6617": "arous",
  "6618": "ampl",
  "6619": "ectĠofĠ",
  "6620": "typeĠ",
  "6621": "living",
  "6622": "goal",
  "6623": "toy",
  "6624": "connectedĠwithĠ",
  "6625": "makeĠitĠ",
  "6626": "which\ntheĠ",
  "6627": "toĠthoseĠ",
  "6628": "consciousnessĠofĠ",
  "6629": "trustĠ",
  "6630": "Don",
  "6631": "sĠitsĠ",
  "6632": "place",
  "6633": "miss",
  "6634": "teacherĠandĠ",
  "6635": "byĠhisĠ",
  "6636": "atĠanyĠrateĠ",
  "6637": "toĠbe\n",
  "6638": ".ĠUnlessĠ",
  "6639": "deliberatelyĠ",
  "6640": "problemsĠ",
  "6641": "allĠitsĠ",
  "6642": "eringĠ",
  "6643": "ness,\n",
  "6644": "irres",
  "6645": "irresis",
  "6646": "servic",
  "6647": "sacredĠ",
  "6648": ".\n\nH",
  "6649": "inquisi",
  "6650": "forĠallĠ",
  "6651": "too\n",
  "6652": "abov",
  "6653": "inĠoneĠ",
  "6654": "edĠisĠ",
  "6655": "whichĠmakesĠ",
  "6656": "facts,Ġ",
  "6657": "useĠandĠ",
  "6658": "ties,Ġ",
  "6659": "alp",
  "6660": "deed",
  "6661": "teaching",
  "6662": "distast",
  "6663": "Histor",
  "6664": "understandĠtheĠ",
  "6665": "tent",
  "6666": "(1)Ġ",
  "6667": "atter",
  "6668": "(ifĠ",
  "6669": "still\n",
  "6670": "valid",
  "6671": "oneĠorĠ",
  "6672": "sake",
  "6673": "best\n",
  "6674": ".ĠLetĠusĠ",
  "6675": "Cam",
  "6676": "Cambrid",
  "6677": "elev",
  "6678": "doctrineĠ",
  "6679": "Pre",
  "6680": "editionsĠ",
  "6681": "notĠprotectedĠbyĠU.S.Ġ",
  "6682": "erm",
  "6683": "license,Ġ",
  "6684": "complyingĠ",
  "6685": "complyingĠwithĠtheĠ",
  "6686": "report",
  "6687": "copyrightĠlaw",
  "6688": "commerci",
  "6689": "YOUĠ",
  "6690": "DIS",
  "6691": "www.gutenberg.org/",
  "6692": "feeĠforĠ",
  "6693": "ProjectĠGutenberg™ĠelectronicĠworkĠ",
  "6694": "1.E.8",
  "6695": "ProjectĠGutenberg”Ġ",
  "6696": "youĠcanĠdoĠ",
  "6697": "termsĠofĠthisĠagreementĠ",
  "6698": "formatĠ",
  "6699": "fullĠProjectĠGutenberg™ĠLicenseĠ",
  "6700": "copyrightĠholder",
  "6701": "1.E.9",
  "6702": "edĠup",
  "6703": ",ĠofĠtheĠ",
  "6704": "chargeĠaĠ",
  "6705": "prepareĠ",
  "6706": "\nĠĠĠĠ•ĠYouĠ",
  "6707": "paragraphĠ1.F.3",
  "6708": "groupĠofĠ",
  "6709": "DAMAGE",
  "6710": "AGRE",
  "6711": "\nLI",
  "6712": "ILITY",
  "6713": "ANYĠ",
  "6714": "receivedĠtheĠworkĠ",
  "6715": "THĠ",
  "6716": "ĠLiterary\n",
  "6717": "ĠLiterary\nArchiveĠFound",
  "6718": "pageĠ",
  "6719": "Foundation’sĠ",
  "6720": "donate.\n\n",
  "6721": "atedĠfromĠ",
  "6722": "intedĠ",
  "6723": "ĠĠĠĠĠĠĠĠĠĠĠĠĠĠĠĠĠĠ",
  "6724": "ementaryĠ",
  "6725": ",\nthatĠ",
  "6726": "modesĠofĠ",
  "6727": "parts",
  "6728": "edlyĠ",
  "6729": "neighbor",
  "6730": "mediumĠofĠ",
  "6731": "weav",
  "6732": "compare",
  "6733": "tendenciesĠ",
  "6734": "so-calledĠ",
  "6735": "examineĠ",
  "6736": "ofĠthings,Ġ",
  "6737": "into\ntheĠ",
  "6738": "inĠtheĠschool",
  "6739": "conditions,Ġ",
  "6740": "somehowĠ",
  "6741": "indefinit",
  "6742": "ante",
  "6743": "finallyĠ",
  "6744": "ready-",
  "6745": "text-",
  "6746": ".ĠHenceĠtheĠ",
  "6747": "latentĠ",
  "6748": "askedĠ",
  "6749": "conditionsĠofĠ",
  "6750": "anĠidea",
  "6751": "connectionĠwithĠtheĠ",
  "6752": "everydayĠ",
  "6753": "?ĠWh",
  "6754": "forcesĠ",
  "6755": "e.ĠAndĠ",
  "6756": "rans",
  "6757": "truism",
  "6758": "letter",
  "6759": "intercourseĠ",
  "6760": "fosterĠtheĠ",
  "6761": "Universi",
  "6762": "widen",
  "6763": "proofĠ",
  "6764": "Su",
  "6765": "Israel",
  "6766": "consequentĠ",
  "6767": "(inĠtheĠ",
  "6768": "ofĠtheĠ\"",
  "6769": "edĠhisĠ",
  "6770": ";Ġand\n",
  "6771": "congen",
  "6772": "deprav",
  "6773": "premis",
  "6774": "perceptionĠ",
  "6775": "isĠ_",
  "6776": "Stand",
  "6777": "favourableĠ",
  "6778": "pathĠofĠself-realis",
  "6779": "_ĠandĠ_",
  "6780": "comprehen",
  "6781": "inkingĠ",
  "6782": "inference",
  "6783": "constituteĠ",
  "6784": ";\nĠĠĠĠ_see_Ġ",
  "6785": "libertyĠ",
  "6786": "anywhereĠ",
  "6787": "useĠitĠ",
  "6788": "Langu",
  "6789": "ĠOFĠTHEĠ",
  "6790": "PARTĠ",
  "6791": "IR",
  "6792": "educateĠ",
  "6793": "trac",
  "6794": "seemĠtoĠ",
  "6795": "grownĠ",
  "6796": "asĠfarĠasĠ",
  "6797": "controversi",
  "6798": "dependĠ",
  "6799": "\nwithĠ",
  "6800": "adol",
  "6801": "regardĠasĠ",
  "6802": "nin",
  "6803": "centuryĠ",
  "6804": "timeĠofĠ",
  "6805": "therefore\n",
  "6806": "tedĠbyĠ",
  "6807": "search",
  "6808": "modern",
  "6809": "support",
  "6810": "givenĠtoĠ",
  "6811": "byĠnoĠ",
  "6812": "inĠitself",
  "6813": "inĠpartĠ",
  "6814": "lyĠandĠ",
  "6815": "merely\n",
  "6816": "wouldĠnotĠbeĠ",
  "6817": "linkĠ",
  "6818": "grati",
  "6819": "refin",
  "6820": "edĠupĠ",
  "6821": "utilitarianĠ",
  "6822": "hithertoĠ",
  "6823": "men\n",
  "6824": "tran",
  "6825": "Ġthat\ntheĠ",
  "6826": "literatureĠ",
  "6827": "ron",
  "6828": "about",
  "6829": "youthĠ",
  "6830": "nineĠ",
  "6831": "learnedĠ",
  "6832": "is,ĠofĠcourse,Ġ",
  "6833": "Ger",
  "6834": "preserveĠ",
  "6835": "stimulateĠ",
  "6836": "do\nnotĠ",
  "6837": "exempl",
  "6838": "example",
  "6839": "carriedĠonĠ",
  "6840": "later\n",
  "6841": "in\nhisĠ",
  "6842": "wasĠnotĠ",
  "6843": ",000Ġ",
  "6844": "ten\n",
  "6845": "courag",
  "6846": "attentionĠtoĠ",
  "6847": "one’sĠ",
  "6848": "hair",
  "6849": "MontessoriĠ",
  "6850": "withĠit",
  "6851": "_ĠtoĠ",
  "6852": "easily\n",
  "6853": "ĠthusĠ",
  "6854": "ideaĠisĠ",
  "6855": "ld",
  "6856": "discuss",
  "6857": "effic",
  "6858": "boys",
  "6859": "oudĠ",
  "6860": "Eu",
  "6861": "Indi",
  "6862": "whenĠtheyĠareĠ",
  "6863": "defici",
  "6864": "feelingĠofĠ",
  "6865": "itĠinĠ",
  "6866": ",ĠthroughĠ",
  "6867": "tion,ĠandĠ",
  "6868": "horr",
  "6869": "nurs",
  "6870": "citizen",
  "6871": "inĠthis\n",
  "6872": "surve",
  "6873": "efficientĠ",
  "6874": "whichĠhasĠbeenĠ",
  "6875": "crueltyĠ",
  "6876": "cord",
  "6877": "love,Ġ",
  "6878": "Br",
  "6879": "best",
  "6880": "ChineseĠ",
  "6881": "Ġthes",
  "6882": "expectedĠ",
  "6883": "characteristic",
  "6884": "mut",
  "6885": "tismĠ",
  "6886": "iesĠtheĠ",
  "6887": "tion--",
  "6888": "saveĠ",
  "6889": "must\nbeĠ",
  "6890": "ior",
  "6891": "were",
  "6892": "ically\n",
  "6893": "older",
  "6894": "shallĠweĠ",
  "6895": "ive,Ġ",
  "6896": "hearĠ",
  "6897": "edom",
  "6898": "env",
  "6899": "compatibleĠ",
  "6900": "itiesĠandĠ",
  "6901": "ruin",
  "6902": "repress",
  "6903": "condemn",
  "6904": "ing,ĠbutĠ",
  "6905": "cod",
  "6906": ".ĠIĠamĠ",
  "6907": "dangerousĠ",
  "6908": "mirr",
  "6909": "byĠtheirĠ",
  "6910": "grewĠ",
  "6911": "esh",
  "6912": "ative,Ġ",
  "6913": "allyĠtheĠ",
  "6914": "is\ntheĠ",
  "6915": "knowledgeĠandĠ",
  "6916": "recep",
  "6917": "secretĠ",
  "6918": "inspiredĠ",
  "6919": "findĠoutĠ",
  "6920": "beliefĠinĠtheĠ",
  "6921": "-mind",
  "6922": "Her",
  "6923": "supportĠ",
  "6924": "?ĠTh",
  "6925": "of\nhisĠ",
  "6926": "compet",
  "6927": "encyĠ",
  "6928": "involveĠ",
  "6929": "sust",
  "6930": "sustain",
  "6931": "laidĠ",
  "6932": "and\nun",
  "6933": "mindĠandĠ",
  "6934": "medicalĠ",
  "6935": ".ĠAnyĠ",
  "6936": "whyĠtheĠ",
  "6937": "secon",
  "6938": "accordingĠtoĠtheĠ",
  "6939": "how\n",
  "6940": "grown-up",
  "6941": "intern",
  "6942": "goĠtoĠ",
  "6943": "andĠitsĠ",
  "6944": "consequenc",
  "6945": ".ĠHowĠ",
  "6946": ".ĠAnd\n",
  "6947": "childĠtoĠ",
  "6948": "words",
  "6949": "sudden",
  "6950": "asĠtoĠbeĠ",
  "6951": "e.ĠInĠ",
  "6952": "subsequentĠ",
  "6953": "instinctĠisĠ",
  "6954": "cameĠ",
  "6955": "fearĠofĠ",
  "6956": "confusionĠ",
  "6957": "mysteri",
  "6958": "ordĠ",
  "6959": "differenceĠbetweenĠ",
  "6960": "meanĠthatĠ",
  "6961": "educationĠofĠtheĠ",
  "6962": "explanationĠ",
  "6963": "howĠtheĠ",
  "6964": "tact",
  "6965": "regardsĠ",
  "6966": "ations,ĠandĠ",
  "6967": ",ĠIĠ",
  "6968": "possessionĠofĠ",
  "6969": "Di",
  "6970": "illus",
  "6971": "exal",
  "6972": "representĠ",
  "6973": "noĠmoreĠ",
  "6974": "utiliz",
  "6975": "ence,\n",
  "6976": "propri",
  "6977": "(theĠ",
  "6978": "occupationsĠ",
  "6979": "appealĠtoĠ",
  "6980": "consideration",
  "6981": "ingĠtheseĠ",
  "6982": "explainĠ",
  "6983": "books,Ġ",
  "6984": "virtueĠofĠ",
  "6985": "s.ĠWeĠ",
  "6986": "unconsciousĠ",
  "6987": "ability,Ġ",
  "6988": "time-",
  "6989": "Ġtheir",
  "6990": "contactĠwithĠ",
  "6991": ".ĠThenĠ",
  "6992": "empt",
  "6993": ".ĠToĠbeĠ",
  "6994": "proce",
  "6995": "InĠthisĠ",
  "6996": "SoĠ",
  "6997": "mechanical\n",
  "6998": "beginningĠ",
  "6999": "powersĠ",
  "7000": "enceĠofĠtheĠ",
  "7001": "tendingĠtoĠ",
  "7002": ",ĠwhoĠ",
  "7003": "mayĠnotĠbeĠ",
  "7004": "--thatĠ",
  "7005": "willĠbe\n",
  "7006": "referenceĠtoĠ",
  "7007": "unfortun",
  "7008": ".ĠTo\n",
  "7009": "assumptionĠthatĠ",
  "7010": "already\n",
  "7011": "as\ntheĠ",
  "7012": "livesĠ",
  "7013": "dateĠ",
  "7014": "edĠforĠtheĠ",
  "7015": "esĠfromĠ",
  "7016": "method,Ġ",
  "7017": ",ĠandĠth",
  "7018": "door",
  "7019": "wholesom",
  "7020": "partĠofĠthe\n",
  "7021": "keepingĠ",
  "7022": "elementaryĠschoolsĠ",
  "7023": "payĠ",
  "7024": "hypothesisĠ",
  "7025": "accurateĠ",
  "7026": "of\nourĠ",
  "7027": ".ĠTheĠteacherĠ",
  "7028": "ised",
  "7029": "ourselv",
  "7030": "cy",
  "7031": "usĠandĠ",
  "7032": "startĠ",
  "7033": "research",
  "7034": "laborator",
  "7035": "changeĠofĠ",
  "7036": "pointĠofĠviewĠ",
  "7037": "selectedĠ",
  "7038": "ison",
  "7039": "enn",
  "7040": "END",
  "7041": "greg",
  "7042": "workĠinĠ",
  "7043": "Liter",
  "7044": "mediumĠ",
  "7045": "equipment",
  "7046": "assist",
  "7047": "reachingĠ",
  "7048": "anyĠparticularĠ",
  "7049": ".ĠPr",
  "7050": "tnessĠ",
  "7051": "wool",
  "7052": "portĠ",
  "7053": "relatedĠ",
  "7054": "esĠitselfĠ",
  "7055": "atedĠtoĠ",
  "7056": "contribut",
  "7057": "historyĠofĠ",
  "7058": "objec",
  "7059": "multipl",
  "7060": "one-sid",
  "7061": "identifi",
  "7062": "inĠorderĠthatĠ",
  "7063": "accordinglyĠ",
  "7064": "color",
  "7065": "areĠweĠ",
  "7066": "observationĠandĠ",
  "7067": "toĠa\n",
  "7068": "expand",
  "7069": "natureĠandĠ",
  "7070": "ofĠthings",
  "7071": "+----",
  "7072": "philosophyĠofĠ",
  "7073": "themselves,Ġ",
  "7074": "behind",
  "7075": "ity,ĠtheĠ",
  "7076": "is,ĠtheĠ",
  "7077": "\"ĠofĠ",
  "7078": "examinationĠsystemĠ",
  "7079": ".\"ĠTheĠ",
  "7080": "assa",
  "7081": "divineĠ",
  "7082": "discer",
  "7083": "idealĠofĠ",
  "7084": "legalismĠ",
  "7085": ",--thatĠ",
  "7086": "intoĠanĠ",
  "7087": "aspir",
  "7088": "Human",
  "7089": "artistĠ",
  "7090": "\"ĠisĠ",
  "7091": "yst",
  "7092": "recognitionĠ",
  "7093": "edĠwith",
  "7094": "convertedĠintoĠ",
  "7095": "eachĠoneĠofĠ",
  "7096": "anĠIn",
  "7097": "substanc",
  "7098": "_ĠinĠ",
  "7099": "many-sidedĠ",
  "7100": "rhythm",
  "7101": "drudg",
  "7102": "THEĠTRAIN",
  "7103": "s]\n\n",
  "7104": "i.e._Ġ",
  "7105": "meanings,Ġ",
  "7106": "conceptĠofĠ",
  "7107": "conceptĠ",
  "7108": "autonom",
  "7109": "Author",
  "7110": "KĠ",
  "7111": "17",
  "7112": "SCHOOLĠ",
  "7113": "INGĠ",
  "7114": "es\nandĠ",
  "7115": "widerĠ",
  "7116": "idl",
  "7117": "ultimateĠ",
  "7118": "hopeĠtoĠ",
  "7119": "become\n",
  "7120": "purposesĠofĠ",
  "7121": "underĠthisĠ",
  "7122": ".\n\n\n\n\n",
  "7123": "ninet",
  "7124": "reput",
  "7125": "rep",
  "7126": "udi",
  "7127": "ately\n",
  "7128": "erĠthanĠ",
  "7129": "ted,Ġ",
  "7130": "possiblyĠbeĠ",
  "7131": "recomm",
  "7132": "fee",
  "7133": "day,Ġ",
  "7134": "means\n",
  "7135": "All",
  "7136": "circumstances",
  "7137": "hang",
  "7138": "comfor",
  "7139": "weĠfind",
  "7140": "ateĠofĠ",
  "7141": "callĠtheĠ",
  "7142": "gentl",
  "7143": "gentlem",
  "7144": "nu",
  "7145": "charm",
  "7146": "evenĠwhenĠ",
  "7147": "twelveĠ",
  "7148": "deb",
  "7149": "spor",
  "7150": "itĠwouldĠbeĠ",
  "7151": "fairĠ",
  "7152": "majorityĠofĠ",
  "7153": "rather\n",
  "7154": ",ĠbecauseĠ",
  "7155": "rare",
  "7156": "ationĠfromĠ",
  "7157": "oppres",
  "7158": "toĠbeĠtheĠ",
  "7159": "With",
  "7160": "physic",
  "7161": "physiolog",
  "7162": "part,Ġ",
  "7163": "Fren",
  "7164": "grammar",
  "7165": "elementsĠ",
  "7166": "fromĠoneĠ",
  "7167": "leĠofĠ",
  "7168": "America",
  "7169": "fif",
  "7170": "actu",
  "7171": ".ĠHereĠ",
  "7172": "eĠinĠtheĠ",
  "7173": "Prof",
  "7174": "fault",
  "7175": "beautyĠ",
  "7176": "eachĠother",
  "7177": "acleĠ",
  "7178": "ingĠonĠ",
  "7179": "impartĠ",
  "7180": "inĠmostĠ",
  "7181": "inĠwhichĠtheyĠ",
  "7182": "emerg",
  "7183": "e.\n\nTh",
  "7184": "adequatelyĠ",
  "7185": "both\n",
  "7186": "another\n",
  "7187": "different",
  "7188": "Ġthorough",
  "7189": "placedĠ",
  "7190": "barri",
  "7191": "oblig",
  "7192": "betweenĠtheĠtwoĠ",
  "7193": "laz",
  "7194": "rio",
  "7195": "practical\n",
  "7196": "aster",
  "7197": "ationĠofĠaĠ",
  "7198": "significanceĠ",
  "7199": "besid",
  "7200": "equalĠ",
  "7201": "erĠisĠ",
  "7202": "inĠtheir\n",
  "7203": "judgeĠ",
  "7204": ",ĠtheseĠ",
  "7205": "admir",
  "7206": "tainĠaĠ",
  "7207": "isĠveryĠ",
  "7208": "farĠasĠtheĠ",
  "7209": ",ĠandĠsoĠon",
  "7210": "oneĠwhoĠ",
  "7211": "es\nofĠ",
  "7212": "ationalĠ",
  "7213": "considerationĠ",
  "7214": "inĠturn",
  "7215": "wind",
  "7216": "oneĠtoĠ",
  "7217": "wholeĠofĠ",
  "7218": "rob",
  "7219": ",ĠorĠaĠ",
  "7220": "onlyĠoneĠ",
  "7221": ".Ġ“",
  "7222": "earĠ",
  "7223": "seekĠ",
  "7224": "erĠwhoĠ",
  "7225": "manĠwhoĠ",
  "7226": "soĠtoĠ",
  "7227": "shown",
  "7228": "hypo",
  "7229": "cris",
  "7230": "volunt",
  "7231": "esĠitĠ",
  "7232": "negativeĠ",
  "7233": "notherĠ",
  "7234": "sympathy",
  "7235": "vivid",
  "7236": "seeĠtheĠ",
  "7237": "dueĠtoĠtheĠ",
  "7238": "affect",
  "7239": "financialĠ",
  "7240": "storeĠofĠ",
  "7241": "sip",
  "7242": "scrut",
  "7243": "scrutin",
  "7244": "form,Ġ",
  "7245": "manualĠ",
  "7246": "withĠnoĠ",
  "7247": "fun",
  "7248": "appoint",
  "7249": "like\n",
  "7250": "giveĠtheĠ",
  "7251": "asĠto\n",
  "7252": "crow",
  "7253": ".ĠEduc",
  "7254": "collectiveĠ",
  "7255": "e\nisĠ",
  "7256": "tedĠandĠ",
  "7257": "enorm",
  "7258": "new-",
  "7259": "habitĠ",
  "7260": "excessiveĠ",
  "7261": "periodĠofĠ",
  "7262": "helplessĠ",
  "7263": ",ĠasĠweĠ",
  "7264": "first,Ġ",
  "7265": "moreĠthanĠaĠ",
  "7266": "ingly",
  "7267": "intelligibleĠ",
  "7268": ".\nItĠ",
  "7269": "laws,Ġ",
  "7270": "isĠasĠ",
  "7271": "eĠthatĠtheĠ",
  "7272": "stea",
  "7273": "helpless",
  "7274": ".ĠIf\n",
  "7275": "elaborateĠ",
  "7276": "sĠ(",
  "7277": "underĠthe\n",
  "7278": "break",
  "7279": "seaĠ",
  "7280": "brokenĠ",
  "7281": "ightsĠ",
  "7282": "general\n",
  "7283": "hourĠ",
  "7284": "upĠtoĠtheĠ",
  "7285": "whichĠIĠhaveĠ",
  "7286": "hur",
  "7287": "s.\n\nTheĠ",
  "7288": "prohibi",
  "7289": "ankĠ",
  "7290": "atĠitsĠ",
  "7291": "your",
  "7292": "all\ntheĠ",
  "7293": "concernĠ",
  "7294": "soĠtheĠ",
  "7295": "identifyĠ",
  "7296": "beingĠaĠ",
  "7297": "ullĠ",
  "7298": "meĠtoĠ",
  "7299": "stopĠ",
  "7300": "ationĠinĠ",
  "7301": "fulfill",
  "7302": "so,Ġ",
  "7303": "qualities",
  "7304": "prevail",
  "7305": "weĠdoĠnotĠ",
  "7306": "makesĠtheĠ",
  "7307": "set\n",
  "7308": "propriet",
  "7309": "himĠtheĠ",
  "7310": "type",
  "7311": "ones",
  "7312": "imageĠ",
  "7313": "byĠthisĠ",
  "7314": "presentsĠ",
  "7315": ";ĠandĠitĠisĠ",
  "7316": "false",
  "7317": "onĠtheĠotherĠ",
  "7318": "doesĠtheĠ",
  "7319": "legalĠ",
  "7320": "interfer",
  "7321": "inĠmanyĠ",
  "7322": "redĠtoĠ",
  "7323": "capitalĠ",
  "7324": "myselfĠ",
  "7325": "workĠandĠ",
  "7326": "rewardsĠandĠ",
  "7327": "does\n",
  "7328": "joyĠ",
  "7329": "edĠatĠtheĠ",
  "7330": "s.ĠHeĠ",
  "7331": "dependsĠuponĠ",
  "7332": "Mill",
  "7333": "long\n",
  "7334": "iftĠ",
  "7335": "ness,ĠandĠ",
  "7336": "IĠmeanĠ",
  "7337": "oughtsĠ",
  "7338": "functionĠ",
  "7339": "expans",
  "7340": "observeĠ",
  "7341": "under\n",
  "7342": "ble\n",
  "7343": "convictionĠthatĠ",
  "7344": "colour",
  "7345": "existenceĠofĠ",
  "7346": "chooseĠ",
  "7347": "actedĠ",
  "7348": "ingĠourĠ",
  "7349": "nothing",
  "7350": "explor",
  "7351": "puzz",
  "7352": "knowĠofĠ",
  "7353": "questions",
  "7354": "less,Ġ",
  "7355": "rudiment",
  "7356": "ally,ĠtheĠ",
  "7357": "dispos",
  "7358": "troubl",
  "7359": ".ĠUnder",
  "7360": "facilit",
  "7361": "goĠonĠ",
  "7362": "wall",
  "7363": "drill",
  "7364": "notĠasĠ",
  "7365": "push",
  "7366": "chall",
  "7367": "tingĠtheĠ",
  "7368": "popular",
  "7369": "chos",
  "7370": "initiativeĠ",
  "7371": "intimatelyĠ",
  "7372": "pull",
  "7373": "trav",
  "7374": "informationĠaboutĠ",
  "7375": "IĠcanĠ",
  "7376": "Nat",
  "7377": "ultureĠ",
  "7378": "_TheĠ",
  "7379": "rus",
  "7380": "life--",
  "7381": "value",
  "7382": "myth",
  "7383": "toĠdo",
  "7384": "existence,Ġ",
  "7385": "Bo",
  "7386": "lessĠthanĠ",
  "7387": "ofĠthoseĠwhoĠ",
  "7388": "Ġthir",
  "7389": "hiddenĠ",
  "7390": "NOTES",
  "7391": "Term",
  "7392": "register",
  "7393": "copiesĠ",
  "7394": "TRI",
  "7395": "domainĠ",
  "7396": "tex",
  "7397": "ation.",
  "7398": "T,Ġ",
  "7399": "modific",
  "7400": "hundred",
  "7401": "80",
  "7402": "orĠofĠtheĠ",
  "7403": "allĠofĠ",
  "7404": "AllĠ",
  "7405": "189",
  "7406": "intoĠitsĠ",
  "7407": "linesĠ",
  "7408": "supplyĠ",
  "7409": "unityĠofĠ",
  "7410": "secur",
  "7411": "intui",
  "7412": "current",
  "7413": "scholarship",
  "7414": "secondaryĠ",
  "7415": "tyĠofĠ",
  "7416": "drawingĠ",
  "7417": "instanceĠ",
  "7418": "inquiry,Ġ",
  "7419": "lifeĠof\n",
  "7420": "ibil",
  "7421": "isolated",
  "7422": "thoroughlyĠ",
  "7423": "contra",
  "7424": "particular\n",
  "7425": ",ĠthroughĠtheĠ",
  "7426": "sket",
  "7427": "emphasisĠ",
  "7428": "harmoniousĠ",
  "7429": "andĠspiritualĠ",
  "7430": "one'sĠownĠ",
  "7431": "evolveĠ",
  "7432": "toĠ\"",
  "7433": "Heav",
  "7434": "takenĠforĠgrant",
  "7435": "legalism",
  "7436": "mustĠthereforeĠ",
  "7437": "Pharis",
  "7438": "formula",
  "7439": "demoralis",
  "7440": "eternalĠ",
  "7441": "consciousĠofĠ",
  "7442": "'tĠ",
  "7443": "_regime_",
  "7444": "_Ġ(",
  "7445": "ingĠitselfĠ",
  "7446": "reciproc",
  "7447": "volum",
  "7448": "markĠ",
  "7449": "GreatĠPublicĠSchool",
  "7450": "idstĠ",
  "7451": "hisĠown",
  "7452": "Egeria'sĠ",
  "7453": "(2)Ġ",
  "7454": "expansiveĠinstinctsĠ",
  "7455": "drudger",
  "7456": "circl",
  "7457": "identicalĠ",
  "7458": "abstraction",
  "7459": "THEĠTRAININGĠOFĠ",
  "7460": "meaningĠisĠ",
  "7461": ".\n\nĠĠĠĠ",
  "7462": "priorĠ",
  "7463": "andĠtherebyĠ",
  "7464": "(_iii",
  "7465": "inductiveĠ",
  "7466": "fixĠ",
  "7467": "conceptsĠ",
  "7468": "idealisticĠ",
  "7469": "imman",
  "7470": "publ",
  "7471": "ation:Ġ",
  "7472": "192",
  "7473": "ation]\n\n",
  "7474": "NE",
  "7475": ".ĠTH",
  "7476": "FUL",
  "7477": "EĠO",
  "7478": "EX",
  "7479": "ingĠtoĠaĠ",
  "7480": "community,Ġ",
  "7481": ".ĠThusĠ",
  "7482": "aĠmoreĠ",
  "7483": ".ĠAtĠtheĠ",
  "7484": "parents",
  "7485": "address",
  "7486": "fareĠ",
  "7487": ".ĠIĠshallĠ",
  "7488": "important\n",
  "7489": "curriculum",
  "7490": "lyingĠ",
  "7491": "PO",
  "7492": "conc",
  "7493": "disastr",
  "7494": "everybodyĠ",
  "7495": "people\n",
  "7496": "byĠbeingĠ",
  "7497": "choos",
  "7498": "reasonĠwhyĠ",
  "7499": "Le",
  "7500": "cros",
  "7501": "?ĠI",
  "7502": ",ĠwhichĠisĠ",
  "7503": "successiveĠ",
  "7504": ";ĠifĠ",
  "7505": "definedĠ",
  "7506": "anĠend",
  "7507": "aysĠ",
  "7508": "narrowĠ",
  "7509": "onĠtheirĠ",
  "7510": "toĠthoseĠwhoĠ",
  "7511": "agreeableĠ",
  "7512": "old-",
  "7513": "willĠthereforeĠ",
  "7514": "should\nbeĠ",
  "7515": "tendĠ",
  "7516": "hygi",
  "7517": "hygien",
  "7518": "curriculumĠ",
  "7519": "aiss",
  "7520": "abund",
  "7521": "deathĠ",
  "7522": "warĠ",
  "7523": "conductedĠ",
  "7524": "struggleĠ",
  "7525": "involvedĠinĠ",
  "7526": "apparatusĠ",
  "7527": "comprom",
  "7528": "that",
  "7529": "boysĠandĠgirlsĠ",
  "7530": "asĠaĠrule,Ġ",
  "7531": "stheticĠ",
  "7532": "sideĠofĠ",
  "7533": ".ĠPer",
  "7534": "veh",
  "7535": "y\nisĠ",
  "7536": "ousandĠ",
  "7537": "AmericanĠ",
  "7538": "usedĠinĠ",
  "7539": "rapid",
  "7540": "wav",
  "7541": "impar",
  "7542": "concernedĠ",
  "7543": "readĠandĠ",
  "7544": ".ĠAfterĠ",
  "7545": "a\ncertainĠ",
  "7546": "workedĠ",
  "7547": ",ĠbutĠtheĠ",
  "7548": "essorĠ",
  "7549": "methods,Ġ",
  "7550": "disp",
  "7551": "interf",
  "7552": "interfereĠ",
  "7553": "hasĠalwaysĠ",
  "7554": "requireĠ",
  "7555": "Dr.ĠArno",
  "7556": "tellsĠ",
  "7557": "habitualĠ",
  "7558": "jour",
  "7559": "...",
  "7560": "letterĠ",
  "7561": "insteadĠ",
  "7562": ",ĠandĠyetĠ",
  "7563": "impression",
  "7564": "elder",
  "7565": "’Ġ",
  "7566": "be,Ġ",
  "7567": ".ĠSci",
  "7568": "pleasureĠinĠ",
  "7569": "inessĠ",
  "7570": "feelĠthatĠ",
  "7571": "walkĠ",
  "7572": "apparentlyĠ",
  "7573": "fra",
  "7574": "satisfactionĠ",
  "7575": "haveĠtheirĠ",
  "7576": "sinĠ",
  "7577": "evidence",
  "7578": "clearĠthatĠ",
  "7579": "eĠasĠ",
  "7580": "differĠ",
  "7581": "produce\n",
  "7582": "rit",
  "7583": "sceptic",
  "7584": "deeplyĠ",
  "7585": "patrio",
  "7586": "failedĠtoĠ",
  "7587": "atmosphereĠofĠ",
  "7588": "iedĠbyĠ",
  "7589": "modern\n",
  "7590": "dou",
  "7591": "oreĠ",
  "7592": "tyrann",
  "7593": "likelyĠtoĠbeĠ",
  "7594": "s,ĠweĠ",
  "7595": "field",
  "7596": "elyĠtheĠ",
  "7597": "originallyĠ",
  "7598": "itsĠofĠ",
  "7599": "contribu",
  "7600": "New",
  "7601": "supersti",
  "7602": ".\n\nWhenĠ",
  "7603": "broadĠ",
  "7604": "love",
  "7605": "atsĠ",
  "7606": ",ĠbutĠnotĠ",
  "7607": "country",
  "7608": "manĠofĠ",
  "7609": "poetĠ",
  "7610": "bab",
  "7611": "thatĠthisĠ",
  "7612": "ighten",
  "7613": ".ĠManyĠ",
  "7614": "extra",
  "7615": "anceĠtoĠ",
  "7616": "ofĠthese\n",
  "7617": "dealĠwithĠ",
  "7618": "runĠ",
  "7619": "overcomeĠ",
  "7620": "rebelli",
  "7621": "omin",
  "7622": "saidĠthatĠ",
  "7623": "of\naĠ",
  "7624": "thoseĠwhoĠ",
  "7625": "sist",
  "7626": "dread",
  "7627": "itĠaĠ",
  "7628": "toil",
  "7629": "rais",
  "7630": "stage",
  "7631": "beenĠtheĠ",
  "7632": "consistsĠinĠ",
  "7633": "fact,Ġ",
  "7634": "signifiesĠ",
  "7635": "itĠmustĠbeĠ",
  "7636": "t\ntoĠ",
  "7637": ".ĠThisĠisĠtheĠ",
  "7638": "intelligence,Ġ",
  "7639": "ĠthatĠitĠisĠ",
  "7640": "withĠotherĠ",
  "7641": "teachers,Ġ",
  "7642": "trainĠtheĠ",
  "7643": "obtainĠ",
  "7644": "tiseĠ",
  "7645": "ed:Ġ",
  "7646": "meet",
  "7647": "muchĠlessĠ",
  "7648": "penetr",
  "7649": "agric",
  "7650": "ĠthemĠtoĠ",
  "7651": "these\n",
  "7652": "\n\n\nTheĠ",
  "7653": "untilĠtheĠ",
  "7654": "proportion",
  "7655": "live,Ġ",
  "7656": "instincts,Ġ",
  "7657": "dieĠ",
  "7658": "force",
  "7659": "firstĠandĠ",
  "7660": "coldĠ",
  "7661": "pick",
  "7662": ".ĠLetĠ",
  "7663": "shortĠ",
  "7664": "farĠmoreĠ",
  "7665": "ba",
  "7666": "must",
  "7667": "tumbl",
  "7668": "outletĠ",
  "7669": "doneĠtoĠ",
  "7670": "useĠtheĠ",
  "7671": "romĠ",
  "7672": "advent",
  "7673": "imagineĠ",
  "7674": "seas",
  "7675": "required",
  "7676": "subject,Ġ",
  "7677": "itherĠtheĠ",
  "7678": "inĠtheĠcas",
  "7679": ".ĠSinc",
  "7680": "jump",
  "7681": "apprehen",
  "7682": "Ġthis,Ġ",
  "7683": "experiencedĠ",
  "7684": "ised,Ġ",
  "7685": "owingĠtoĠ",
  "7686": "stinc",
  "7687": "beings",
  "7688": "factĠthatĠtheĠ",
  "7689": ".ĠWhateverĠ",
  "7690": "Som",
  "7691": "thoughtsĠ",
  "7692": "totallyĠ",
  "7693": "give\n",
  "7694": "multiplicityĠofĠ",
  "7695": "possibilitiesĠ",
  "7696": "discussionĠ",
  "7697": "Ġtheory",
  "7698": "nessĠofĠtheĠ",
  "7699": "1]Ġ",
  "7700": "ue",
  "7701": "cut",
  "7702": "undueĠ",
  "7703": "seemĠtoĠbeĠ",
  "7704": ".ĠHeĠisĠ",
  "7705": "heaven",
  "7706": "derivedĠfromĠ",
  "7707": "doĠsoĠ",
  "7708": "aliveĠ",
  "7709": "stimuli",
  "7710": "producingĠ",
  "7711": "antagon",
  "7712": "symp",
  "7713": "symptom",
  "7714": ",ĠandĠheĠ",
  "7715": "constructĠ",
  "7716": "structure",
  "7717": "resultingĠ",
  "7718": "ether\n",
  "7719": "garden",
  "7720": "seed",
  "7721": "often",
  "7722": "forg",
  "7723": ".\n\nInĠtheĠ",
  "7724": "waysĠofĠ",
  "7725": "backĠtoĠtheĠ",
  "7726": "function",
  "7727": "newĠandĠ",
  "7728": "obscureĠ",
  "7729": ".ĠThereforeĠ",
  "7730": "toĠtheir\n",
  "7731": "ofĠtheĠother",
  "7732": "thĠandĠ",
  "7733": "whichĠisĠaĠ",
  "7734": "WhileĠ",
  "7735": "youngĠchildren",
  "7736": "liesĠ",
  "7737": "answerĠtoĠ",
  "7738": "voic",
  "7739": "andĠin",
  "7740": "chair",
  "7741": "certaint",
  "7742": "invent",
  "7743": "satisfyĠ",
  "7744": "failĠ",
  "7745": "orĠre",
  "7746": "payingĠ",
  "7747": "applyĠtoĠ",
  "7748": ".ĠOrĠ",
  "7749": "tyĠtoĠ",
  "7750": "--aĠ",
  "7751": "peculiarlyĠ",
  "7752": "withĠtheirĠ",
  "7753": "supplement",
  "7754": "becauseĠheĠ",
  "7755": "dĠorĠ",
  "7756": "awayĠfromĠ",
  "7757": "orthodox",
  "7758": ".ĠThey\n",
  "7759": "ingĠfromĠ",
  "7760": "is,\n",
  "7761": "strengthen",
  "7762": "faceĠ",
  "7763": "subconsciousĠ",
  "7764": "has",
  "7765": "s\ntoĠ",
  "7766": "vastĠ",
  "7767": "faculties",
  "7768": "mostĠimportantĠ",
  "7769": "town",
  "7770": "Mis",
  "7771": "denĠ",
  "7772": "]\n\nA",
  "7773": "ily,Ġ",
  "7774": ",ĠwithĠ",
  "7775": "challeng",
  "7776": ",\norĠ",
  "7777": "ancientĠ",
  "7778": "es.\n\n",
  "7779": "2]Ġ",
  "7780": "ourĠthought",
  "7781": "wouldĠbeĠtheĠ",
  "7782": "forceĠofĠ",
  "7783": "his\nownĠ",
  "7784": "necessary\n",
  "7785": "formal\n",
  "7786": "relativeĠ",
  "7787": "subjects",
  "7788": "concrete",
  "7789": ",ĠandĠwhichĠ",
  "7790": "branchĠ",
  "7791": "ationĠthatĠ",
  "7792": "relationĠtoĠ",
  "7793": "Ġthinking,Ġ",
  "7794": "objectiveĠ",
  "7795": "se\n",
  "7796": "becomesĠaĠ",
  "7797": "boardingĠ",
  "7798": "standardĠ",
  "7799": "reading,Ġ",
  "7800": "s\nofĠtheĠ",
  "7801": ",ĠthereĠisĠaĠ",
  "7802": "suppliedĠ",
  "7803": "lesĠ",
  "7804": "nameĠofĠ",
  "7805": "thĠofĠ",
  "7806": ".\n\n[",
  "7807": "8]Ġ",
  "7808": "ethod",
  "7809": "Up",
  "7810": "protectĠtheĠ",
  "7811": "ORĠ",
  "7812": "s\n\n",
  "7813": "basedĠ",
  "7814": "useĠofĠtheĠ",
  "7815": "toĠtheĠfullĠ",
  "7816": "requiredĠtoĠ",
  "7817": "defectiveĠ",
  "7818": "VEĠ",
  "7819": "ENCE",
  "7820": "DE",
  "7821": "IRE",
  "7822": "IREC",
  "7823": "organizedĠ",
  "7824": "machine-",
  "7825": "accessi",
  "7826": "accessibleĠ",
  "7827": "ĠĠĠĠĠĠĠĠĠĠĠĠĠĠĠĠĠĠĠĠĠĠĠĠĠ",
  "7828": "copies",
  "7829": "ElementaryĠ",
  "7830": "religious\n",
  "7831": "illumin",
  "7832": "ingenu",
  "7833": "comparedĠ",
  "7834": "obedience,Ġ",
  "7835": "relationĠtoĠtheĠ",
  "7836": "assign",
  "7837": "favor",
  "7838": "activelyĠ",
  "7839": "meaningĠandĠ",
  "7840": "material,Ġ",
  "7841": "termĠ_",
  "7842": "total",
  "7843": "compareĠ",
  "7844": "capableĠ",
  "7845": "onĠtheĠbasisĠ",
  "7846": "ofĠit",
  "7847": "humanĠlife",
  "7848": "verbalĠ",
  "7849": "+---+---+---+---+",
  "7850": "|///|///",
  "7851": "centuriesĠ",
  "7852": "organicĠ",
  "7853": "ementĠofĠtheĠ",
  "7854": "ric",
  "7855": "variousĠkind",
  "7856": "synthesisĠ",
  "7857": "word,Ġ",
  "7858": "problemĠofĠ",
  "7859": "whichĠwe\n",
  "7860": "goesĠonĠ",
  "7861": "asĠ\"",
  "7862": "confron",
  "7863": "Cod",
  "7864": "recour",
  "7865": "landĠ",
  "7866": "inspector",
  "7867": ".ĠWereĠ",
  "7868": "DivineĠ",
  "7869": "rangeĠofĠ",
  "7870": "secular",
  "7871": "lifeĠwhichĠ",
  "7872": "dram",
  "7873": "dramaĠ",
  "7874": "responseĠtoĠtheĠ",
  "7875": "entertain",
  "7876": "organismĠ",
  "7877": "ByĠ",
  "7878": "heĠisĠtoĠ",
  "7879": "examiner",
  "7880": "equivalent",
  "7881": "multitudeĠofĠ",
  "7882": "examination,Ġ",
  "7883": ",ĠtheĠ_",
  "7884": "unity",
  "7885": "leavesĠ",
  "7886": "ScriptureĠ",
  "7887": "in\ntheirĠ",
  "7888": "Dioces",
  "7889": "whichĠthereforeĠ",
  "7890": "teachersĠofĠ",
  "7891": "uniformĠ",
  "7892": ",\"ĠtheĠ",
  "7893": "inĠUtopia",
  "7894": "transformĠ",
  "7895": "inĠUtopiaĠ",
  "7896": "ed_",
  "7897": "concreten",
  "7898": "THEĠTRAININGĠOFĠTHOUGHT",
  "7899": "_.\n\n[Sidenote:Ġ",
  "7900": "]\n\n(_b_)Ġ",
  "7901": ".\n\n\nSec.Ġ2",
  "7902": "_,Ġp.Ġ",
  "7903": "Mean",
  "7904": "bbl",
  "7905": "motionĠ",
  "7906": ",Ġ3",
  "7907": ",Ġ4",
  "7908": "6\n\nĠĠ",
  "7909": "Genti",
  "7910": "striveĠtoĠ",
  "7911": "isĠforĠtheĠ",
  "7912": "almostĠnoĠ",
  "7913": "copyĠit,Ġ",
  "7914": "includedĠ",
  "7915": "bookĠorĠ",
  "7916": "youĠwillĠhaveĠtoĠ",
  "7917": ".\n\nT",
  "7918": "es:Ġ",
  "7919": "eĠwasĠ",
  "7920": "BOO",
  "7921": "IVER",
  "7922": "ĠĠĠĠĠĠĠĠĠĠĠĠĠĠĠĠĠĠĠĠĠĠĠĠĠĠĠĠĠĠĠĠĠĠĠĠĠĠĠĠ",
  "7923": ".ĠTHEĠ",
  "7924": "VEN",
  "7925": "MP",
  "7926": "UR",
  "7927": "SCHOOL",
  "7928": "OUR",
  "7929": "inĠtheĠworldĠ",
  "7930": "differentĠfromĠ",
  "7931": "well-to-",
  "7932": "happenĠtoĠ",
  "7933": "impossibl",
  "7934": "milit",
  "7935": "Ġthere\n",
  "7936": "s,\nbutĠ",
  "7937": "correspondingĠ",
  "7938": "clar",
  "7939": "because,Ġ",
  "7940": "improvement",
  "7941": "adolesc",
  "7942": "prominentlyĠ",
  "7943": "times,Ġ",
  "7944": "oneĠwhichĠ",
  "7945": "openĠtoĠ",
  "7946": "civiliz",
  "7947": "absentĠ",
  "7948": "crudeĠ",
  "7949": "applicationĠofĠ",
  "7950": "approach",
  "7951": "ednessĠ",
  "7952": "For",
  "7953": "opportunityĠforĠ",
  "7954": ",ĠwhereĠ",
  "7955": "argu",
  "7956": "And",
  "7957": ".ĠSome",
  "7958": "aĠlongĠ",
  "7959": "chain",
  "7960": "ately",
  "7961": "as\naĠ",
  "7962": "contempl",
  "7963": "redi",
  "7964": "direct\n",
  "7965": "prefer",
  "7966": ".\n\nThereĠ",
  "7967": "esĠofĠaĠ",
  "7968": "emplo",
  "7969": "leis",
  "7970": "labourĠ",
  "7971": "atĠtheĠsameĠtimeĠ",
  "7972": "old-fashion",
  "7973": "kes",
  "7974": "exceptĠinĠ",
  "7975": "purely\n",
  "7976": "houseĠ",
  "7977": "ill-",
  "7978": "diminish",
  "7979": "favourĠ",
  "7980": "valueĠofĠtheĠ",
  "7981": "ironĠ",
  "7982": "dangerĠofĠ",
  "7983": "alarm",
  "7984": "wordsĠthatĠ",
  "7985": "often\n",
  "7986": ":Ġ“",
  "7987": "explicitĠ",
  "7988": "edĠinĠthe\n",
  "7989": "ideaĠof\n",
  "7990": "spiteĠ",
  "7991": "beganĠtoĠ",
  "7992": "hadĠtheĠ",
  "7993": "fully\n",
  "7994": "acquies",
  "7995": "reasonĠforĠ",
  "7996": ",\nwhichĠ",
  "7997": "beliefĠinĠ",
  "7998": "originalĠsin",
  "7999": "Ab",
  "8000": "glor",
  "8001": "principles",
  "8002": "repl",
  "8003": "threat",
  "8004": "tĠthatĠ",
  "8005": "gul",
  "8006": "external\n",
  "8007": "ChristĠ",
  "8008": "udd",
  "8009": "beliefĠthatĠ",
  "8010": "showsĠthatĠ",
  "8011": "weĠwereĠ",
  "8012": "afra",
  "8013": "ram",
  "8014": "controlĠofĠ",
  "8015": "neglect",
  "8016": "healthĠandĠ",
  "8017": "strainĠ",
  "8018": "educatorĠ",
  "8019": "Japan",
  "8020": "radi",
  "8021": "worship",
  "8022": "outlet",
  "8023": "grac",
  "8024": "rot",
  "8025": "aintĠ",
  "8026": "ationĠwasĠ",
  "8027": "praiseĠ",
  "8028": "national",
  "8029": "emotion",
  "8030": "Protestan",
  "8031": "superfici",
  "8032": "school.ĠTheĠ",
  "8033": "inĠtheĠworld",
  "8034": "intellectĠ",
  "8035": "imagination,Ġ",
  "8036": "ton",
  "8037": "anĠidealĠ",
  "8038": "advancedĠ",
  "8039": "Wor",
  "8040": "asĠan\n",
  "8041": "s\nforĠ",
  "8042": "countriesĠ",
  "8043": "distinction",
  "8044": "produceĠaĠ",
  "8045": "gloom",
  "8046": "ital",
  "8047": "presu",
  "8048": "presuma",
  "8049": "WhereĠ",
  "8050": "reck",
  "8051": "gaveĠ",
  "8052": "desp",
  "8053": "minim",
  "8054": "contentĠtoĠ",
  "8055": "dominantĠ",
  "8056": "ascend",
  "8057": "women",
  "8058": "hero",
  "8059": "whichĠdoesĠnotĠ",
  "8060": "factorsĠ",
  "8061": "whenĠIĠ",
  "8062": "Self",
  "8063": "avingĠ",
  "8064": "supposeĠthatĠ",
  "8065": "interestsĠ",
  "8066": ".ĠFromĠtheĠ",
  "8067": "ignoranceĠ",
  "8068": "forgetful",
  "8069": "reactionĠ",
  "8070": "atĠtheĠageĠofĠ",
  "8071": "blam",
  "8072": "is,ĠIĠ",
  "8073": "neededĠ",
  "8074": "and-",
  "8075": "tureĠofĠ",
  "8076": "stimulus",
  "8077": "share",
  "8078": "cottonĠ",
  "8079": "consideredĠinĠ",
  "8080": "darkĠ",
  "8081": "thir",
  "8082": "far-",
  "8083": "althoughĠ",
  "8084": "orderĠofĠ",
  "8085": "sn",
  "8086": "isĠonlyĠ",
  "8087": "uponĠthe\n",
  "8088": "instructionĠinĠ",
  "8089": "toĠus",
  "8090": "abilityĠofĠ",
  "8091": "opinionĠ",
  "8092": "itĠdoesĠnotĠ",
  "8093": "regi",
  "8094": "atĠpresentĠ",
  "8095": ",\nandĠtheĠ",
  "8096": "broughtĠupĠ",
  "8097": "tyĠandĠ",
  "8098": ".ĠAsĠaĠ",
  "8099": "lingĠ",
  "8100": "e,ĠbutĠtheĠ",
  "8101": "new-bornĠ",
  "8102": "twenty-",
  "8103": "aĠmatterĠofĠ",
  "8104": "amountĠ",
  "8105": "second\n",
  "8106": "becomeĠtheĠ",
  "8107": "regularĠ",
  "8108": "delic",
  "8109": "theyĠwereĠ",
  "8110": ".[",
  "8111": "upĠandĠ",
  "8112": "sleepĠ",
  "8113": ";ĠaĠ",
  "8114": "pursuitĠofĠ",
  "8115": "sheĠisĠ",
  "8116": "precep",
  "8117": "practiceĠofĠ",
  "8118": ";ĠinĠ",
  "8119": "effort,Ġ",
  "8120": "amb",
  "8121": "suddenlyĠ",
  "8122": "where,Ġ",
  "8123": "well\n",
  "8124": ",ĠevenĠ",
  "8125": "take\n",
  "8126": "6]Ġ",
  "8127": "esĠand\n",
  "8128": "sawĠ",
  "8129": "couldĠnotĠbeĠ",
  "8130": "illi",
  "8131": "interrup",
  "8132": "ockĠ",
  "8133": "sĠtoĠaĠ",
  "8134": "shouldĠneverĠ",
  "8135": "edĠtoĠhimĠ",
  "8136": "breakĠ",
  "8137": "instructor",
  "8138": "slightĠ",
  "8139": "ity;Ġ",
  "8140": ";\nbutĠ",
  "8141": "myĠboyĠ",
  "8142": "atĠonc",
  "8143": "sĠoutĠ",
  "8144": "bodilyĠ",
  "8145": "aspectsĠofĠ",
  "8146": "dish",
  "8147": "yearsĠold",
  "8148": "many,Ġ",
  "8149": "accustomedĠtoĠ",
  "8150": "beĠaĠ",
  "8151": "provision",
  "8152": "vital\n",
  "8153": "mention",
  "8154": "willĠtoĠ",
  "8155": "ifĠheĠwereĠ",
  "8156": "quite\n",
  "8157": "objectionĠ",
  "8158": "pursuit",
  "8159": "ingĠa\n",
  "8160": "ation,\n",
  "8161": "yĠorĠ",
  "8162": "substituteĠ",
  "8163": "cultivateĠ",
  "8164": "way\n",
  "8165": "efficac",
  "8166": "s_",
  "8167": "weĠhaveĠseen,Ġ",
  "8168": ",ĠnorĠ",
  "8169": "ing_",
  "8170": "whether\n",
  "8171": "performanc",
  "8172": "sourceĠ",
  "8173": "ickĠ",
  "8174": "regardedĠasĠtheĠ",
  "8175": "formĠof\n",
  "8176": "leaveĠtheĠ",
  "8177": "waitĠ",
  "8178": "desirableĠtoĠ",
  "8179": "scientific\n",
  "8180": "ringĠ",
  "8181": "forgot",
  "8182": "withoutĠanyĠ",
  "8183": "leadsĠtoĠ",
  "8184": "judgingĠ",
  "8185": "had",
  "8186": "preparedĠ",
  "8187": "rigidĠ",
  "8188": "yield",
  "8189": "organizationĠ",
  "8190": "ifĠaĠ",
  "8191": "trul",
  "8192": "treatĠ",
  "8193": "becomes",
  "8194": "s.ĠAĠ",
  "8195": "ideasĠandĠ",
  "8196": ",Ġor\n",
  "8197": "ridicul",
  "8198": "demandĠforĠ",
  "8199": "ates",
  "8200": "impossible,Ġ",
  "8201": "rules,Ġ",
  "8202": "is\ntoĠ",
  "8203": "institut",
  "8204": "uponĠthisĠ",
  "8205": ",ĠandĠwillĠ",
  "8206": "itĠshouldĠbeĠ",
  "8207": "its\nownĠ",
  "8208": "itĠmustĠ",
  "8209": "cher",
  "8210": "hasĠtheĠ",
  "8211": "having\n",
  "8212": "only,Ġ",
  "8213": "ityĠof\n",
  "8214": "ofĠmyĠ",
  "8215": "youĠmayĠ",
  "8216": "luc",
  "8217": "naugh",
  "8218": "limitsĠofĠ",
  "8219": "innumer",
  "8220": "stream",
  "8221": "e,ĠheĠ",
  "8222": "repeatedĠ",
  "8223": ".ĠWeĠhaveĠ",
  "8224": "puttingĠ",
  "8225": "refus",
  "8226": "ofĠcourse",
  "8227": "e,ĠthatĠ",
  "8228": "prop",
  "8229": "constrain",
  "8230": "duty",
  "8231": "small",
  "8232": "occursĠ",
  "8233": "toĠtakeĠ",
  "8234": "fol",
  "8235": "he\nisĠ",
  "8236": ".ĠBe",
  "8237": "forĠthatĠ",
  "8238": "oh",
  "8239": "ordinary\n",
  "8240": "musicalĠ",
  "8241": "shel",
  "8242": "\nforĠ",
  "8243": "forĠtheĠsakeĠ",
  "8244": "trait",
  "8245": "goneĠ",
  "8246": "rightĠtoĠ",
  "8247": "s,\nandĠ",
  "8248": "comesĠtoĠ",
  "8249": "endeavourĠ",
  "8250": "le\n",
  "8251": "true\n",
  "8252": "endowedĠwithĠ",
  "8253": ".ĠWhen\n",
  "8254": ".ĠIĠshouldĠ",
  "8255": "historyĠandĠ",
  "8256": "gradually\n",
  "8257": "introduceĠ",
  "8258": "irresistibleĠ",
  "8259": "otherĠthanĠ",
  "8260": "beginsĠ",
  "8261": "divor",
  "8262": "necessityĠofĠ",
  "8263": ",ĠbutĠalsoĠ",
  "8264": "knowledge\n",
  "8265": "seven",
  "8266": "accountĠofĠ",
  "8267": "brightĠ",
  "8268": "aboveĠtheĠ",
  "8269": "intermedi",
  "8270": "evenĠmoreĠ",
  "8271": "libraryĠ",
  "8272": "ceasesĠtoĠbeĠ",
  "8273": "astic",
  "8274": "appealĠtoĠtheĠ",
  "8275": "instrumentĠ",
  "8276": "\n\nTheĠ",
  "8277": "inspir",
  "8278": "Log",
  "8279": "must,Ġ",
  "8280": ".ĠThereĠareĠaĠ",
  "8281": "dullĠ",
  "8282": ".\n\nWhatĠ",
  "8283": "briefĠ",
  "8284": "bodyĠandĠ",
  "8285": "ationĠwhichĠ",
  "8286": "beautifulĠ",
  "8287": "wouldĠprobablyĠ",
  "8288": "exclusivelyĠ",
  "8289": "degener",
  "8290": "ascertain",
  "8291": "other,Ġ",
  "8292": "ideal\n",
  "8293": "speaking",
  "8294": "Ġthinking",
  "8295": "eager",
  "8296": "ofĠtheĠpupil",
  "8297": "selfishĠ",
  "8298": "business",
  "8299": "ofĠtheĠteacherĠ",
  "8300": "FOO",
  "8301": "FOOT",
  "8302": "FOOTNOTES",
  "8303": ".\n\n[3",
  "8304": "Scientific",
  "8305": "0]Ġ",
  "8306": "SeeĠ",
  "8307": "UseĠ",
  "8308": "distributingĠ",
  "8309": ".ĠIfĠyouĠdoĠnotĠ",
  "8310": "ANY",
  "8311": "THISĠ",
  "8312": "TRIB",
  "8313": "anyĠotherĠworkĠ",
  "8314": ".ĠGeneralĠ",
  "8315": "copyĠofĠ",
  "8316": "paid",
  "8317": "collection",
  "8318": "United\nStat",
  "8319": "ingĠorĠcreatingĠ",
  "8320": "workĠorĠ",
  "8321": "onĠwhichĠtheĠ",
  "8322": ":\n\nĠĠĠĠ",
  "8323": "offici",
  "8324": "alternat",
  "8325": "gros",
  "8326": "suchĠandĠ",
  "8327": "receip",
  "8328": "(c",
  "8329": "becauseĠofĠtheĠ",
  "8330": "future\n",
  "8331": "statusĠ",
  "8332": "Intern",
  "8333": "Ser",
  "8334": "fed",
  "8335": "----------------------------------------------------------------",
  "8336": "-–",
  "8337": "copies.ĠPr",
  "8338": "copies.ĠPrintedĠ",
  "8339": "social",
  "8340": "ing,ĠasĠ",
  "8341": "superficialĠ",
  "8342": "ingĠand\n",
  "8343": "materials,Ġ",
  "8344": "black",
  "8345": "sew",
  "8346": "factorĠofĠ",
  "8347": "half-",
  "8348": "appearsĠ",
  "8349": "deeperĠ",
  "8350": "embry",
  "8351": "insigh",
  "8352": "stoneĠ",
  "8353": "studyĠofĠtheĠ",
  "8354": "accomp",
  "8355": "itselfĠasĠ",
  "8356": "weĠseeĠ",
  "8357": "presentedĠ",
  "8358": "passiv",
  "8359": "ready-madeĠ",
  "8360": "contrastĠ",
  "8361": "random",
  "8362": "wood",
  "8363": "settl",
  "8364": "tong",
  "8365": "find\n",
  "8366": "informationĠandĠ",
  "8367": "inĠwhichĠitĠ",
  "8368": "ergar",
  "8369": "Coll",
  "8370": "|ĠĠĠĠĠĠĠĠĠĠĠĠĠĠĠĠĠĠ",
  "8371": "reflectĠ",
  "8372": "soĠtoĠspeak",
  "8373": ";ĠwhileĠ",
  "8374": "originĠ",
  "8375": ".ĠInĠotherĠwords,Ġ",
  "8376": "tion,ĠorĠ",
  "8377": "itself,ĠandĠ",
  "8378": "pho",
  "8379": "presenceĠofĠ",
  "8380": "elementaryĠeducation",
  "8381": "paymentĠ",
  "8382": "paymentĠbyĠ",
  "8383": "Department",
  "8384": "Prepar",
  "8385": "?ĠAndĠ",
  "8386": "materialisticĠ",
  "8387": ",--toĠ",
  "8388": ".\"ĠTh",
  "8389": "perfection",
  "8390": "?\"Ġ",
  "8391": "distinctionĠbetweenĠ",
  "8392": "egoism",
  "8393": "toĠallĠ",
  "8394": "_regime_Ġ",
  "8395": "ĠĠĠĠĠĠĠ*ĠĠĠĠĠĠĠ*ĠĠĠĠĠĠĠ*ĠĠĠĠĠĠĠ*",
  "8396": "ĠĠĠĠĠĠĠ*ĠĠĠĠĠĠĠ*ĠĠĠĠĠĠĠ*ĠĠĠĠĠĠĠ*ĠĠĠĠĠĠĠ*",
  "8397": "religious",
  "8398": "scholarĠ",
  "8399": "scienti",
  "8400": ",ĠwhichĠisĠtheĠ",
  "8401": "whichĠweĠcallĠ",
  "8402": "\"sav",
  "8403": "paral",
  "8404": "cu",
  "8405": ",\"\n",
  "8406": "interven",
  "8407": "Draw",
  "8408": "WillĠ",
  "8409": "isĠitĠ",
  "8410": "growthĠofĠhisĠ",
  "8411": "entĠtoĠ",
  "8412": "ensĠ",
  "8413": "s,--",
  "8414": ",\"ĠisĠ",
  "8415": "arrestĠ",
  "8416": "flatĠ",
  "8417": "motion",
  "8418": "ourselves,Ġ",
  "8419": "livingĠth",
  "8420": "atĠeveryĠ",
  "8421": "affirmĠ",
  "8422": "Im",
  "8423": "inguisticĠ",
  "8424": "_ĠisĠ",
  "8425": "ĠthinkingĠisĠ",
  "8426": "reflectiv",
  "8427": "det",
  "8428": "ed.\n\n[Sidenote:Ġ",
  "8429": ".\"\n\n[Sidenote:Ġ",
  "8430": "determinedĠ",
  "8431": "inquiryĠandĠ",
  "8432": ";ĠorĠ",
  "8433": "totalĠ",
  "8434": "relativ",
  "8435": "flag",
  "8436": "bubbl",
  "8437": "anĠideaĠ",
  "8438": "concept",
  "8439": "conceptĠofĠtheĠ",
  "8440": "phantas",
  "8441": "cannotĠbutĠ",
  "8442": ".ĠTrans",
  "8443": ".ĠTransl",
  "8444": "isĠforĠtheĠuseĠofĠ",
  "8445": "isĠforĠtheĠuseĠofĠanyoneĠ",
  "8446": "isĠforĠtheĠuseĠofĠanyoneĠanywhereĠ",
  "8447": "otherĠpartsĠofĠtheĠ",
  "8448": "otherĠpartsĠofĠtheĠworldĠ",
  "8449": "otherĠpartsĠofĠtheĠworldĠatĠnoĠ",
  "8450": "otherĠpartsĠofĠtheĠworldĠatĠnoĠcostĠ",
  "8451": "otherĠpartsĠofĠtheĠworldĠatĠnoĠcostĠandĠwithĠ",
  "8452": "otherĠpartsĠofĠtheĠworldĠatĠnoĠcostĠandĠwithĠalmostĠnoĠ",
  "8453": "otherĠpartsĠofĠtheĠworldĠatĠnoĠcostĠandĠwithĠalmostĠnoĠrestric",
  "8454": "otherĠpartsĠofĠtheĠworldĠatĠnoĠcostĠandĠwithĠalmostĠnoĠrestrictions\n",
  "8455": "whatsoever.ĠYouĠmayĠ",
  "8456": "whatsoever.ĠYouĠmayĠcopyĠit,Ġ",
  "8457": "whatsoever.ĠYouĠmayĠcopyĠit,ĠgiveĠitĠ",
  "8458": "whatsoever.ĠYouĠmayĠcopyĠit,ĠgiveĠitĠawayĠ",
  "8459": "whatsoever.ĠYouĠmayĠcopyĠit,ĠgiveĠitĠawayĠorĠ",
  "8460": "whatsoever.ĠYouĠmayĠcopyĠit,ĠgiveĠitĠawayĠorĠre-",
  "8461": "whatsoever.ĠYouĠmayĠcopyĠit,ĠgiveĠitĠawayĠorĠre-useĠitĠ",
  "8462": "whatsoever.ĠYouĠmayĠcopyĠit,ĠgiveĠitĠawayĠorĠre-useĠitĠunderĠtheĠ",
  "8463": "whatsoever.ĠYouĠmayĠcopyĠit,ĠgiveĠitĠawayĠorĠre-useĠitĠunderĠtheĠterms\n",
  "8464": "ofĠtheĠProjectĠGutenberg",
  "8465": "ofĠtheĠProjectĠGutenbergĠL",
  "8466": "ofĠtheĠProjectĠGutenbergĠLicenseĠ",
  "8467": "ofĠtheĠProjectĠGutenbergĠLicenseĠincludedĠ",
  "8468": "ofĠtheĠProjectĠGutenbergĠLicenseĠincludedĠwithĠthisĠ",
  "8469": "online\n",
  "8470": "areĠnotĠlocatedĠinĠtheĠUnitedĠStat",
  "8471": "youĠwillĠhaveĠtoĠcheckĠtheĠ",
  "8472": "youĠwillĠhaveĠtoĠcheckĠtheĠlaw",
  "8473": "countryĠwhereĠyouĠareĠ",
  "8474": "beforeĠusingĠthisĠ",
  "8475": "beforeĠusingĠthisĠeBook",
  "8476": "23",
  "8477": "rown",
  "8478": "Proof",
  "8479": "netĠ",
  "8480": "***Ġ",
  "8481": "STAR",
  "8482": "START",
  "8483": "ĠOFĠTHEĠPROJECTĠGUTENBERG",
  "8484": "ĠOFĠTHEĠPROJECTĠGUTENBERGĠE",
  "8485": "ĠOFĠTHEĠPROJECTĠGUTENBERGĠEBOO",
  "8486": "ĠOFĠTHEĠPROJECTĠGUTENBERGĠEBOOKĠ",
  "8487": "THE",
  "8488": "CO",
  "8489": "S\n\n\n",
  "8490": "ĠOFĠM",
  "8491": "ĠOFĠEDUCATION",
  "8492": "STR",
  "8493": "SĠANDĠ",
  "8494": "DR",
  "8495": "CLU",
  "8496": "youngĠchildrenĠ",
  "8497": "s.ĠItĠisĠ",
  "8498": "butĠalsoĠ",
  "8499": "privateĠ",
  "8500": "weĠare\n",
  "8501": "sphereĠ",
  "8502": "main\n",
  "8503": "es\nareĠ",
  "8504": ",Ġthere\n",
  "8505": "involvesĠaĠ",
  "8506": "purpose,Ġ",
  "8507": "regardĠtoĠ",
  "8508": "inĠtheĠwayĠofĠ",
  "8509": "opposit",
  "8510": "selyĠ",
  "8511": "process,Ġ",
  "8512": "attachĠ",
  "8513": "early\n",
  "8514": "educationĠshouldĠ",
  "8515": ".ĠBoth",
  "8516": "wide",
  "8517": "belongĠtoĠtheĠ",
  "8518": "cast",
  "8519": "seek",
  "8520": "democr",
  "8521": "would,Ġ",
  "8522": "nowad",
  "8523": "concerned",
  "8524": "deadĠ",
  "8525": "clever",
  "8526": "satisfactoryĠ",
  "8527": "reasons,Ġ",
  "8528": "ately,Ġ",
  "8529": "Cl",
  "8530": "classicalĠ",
  "8531": "girlsĠ",
  "8532": "respectsĠ",
  "8533": "fineĠ",
  "8534": "considerations,Ġ",
  "8535": "scienceĠisĠ",
  "8536": "between\ntheĠ",
  "8537": "minister",
  "8538": "enablesĠ",
  "8539": "ityĠinĠ",
  "8540": "trivial",
  "8541": "vividĠ",
  "8542": "utterlyĠ",
  "8543": "onĠtheĠotherĠhand,Ġ",
  "8544": "killĠ",
  "8545": "whichĠtheseĠ",
  "8546": "hakes",
  "8547": "consol",
  "8548": "far\n",
  "8549": "varietyĠof\n",
  "8550": "mere\n",
  "8551": "value,Ġ",
  "8552": "mankindĠ",
  "8553": "bird",
  "8554": "any\notherĠ",
  "8555": ",ĠifĠweĠ",
  "8556": "conscious\n",
  "8557": "eĠand\n",
  "8558": "argumentĠ",
  "8559": "statedĠ",
  "8560": "willĠbeĠtheĠ",
  "8561": "profitĠ",
  "8562": "render",
  "8563": ".ĠWhenĠIĠ",
  "8564": "efficienc",
  "8565": "alsoĠaĠ",
  "8566": "beauty",
  "8567": "vocabular",
  "8568": "ofĠusĠ",
  "8569": "automatic",
  "8570": "”Ġ(",
  "8571": "84",
  "8572": "nessĠtoĠ",
  "8573": ",5",
  "8574": "looseĠ",
  "8575": "drop",
  "8576": "theĠ_",
  "8577": "changedĠ",
  "8578": "instance,Ġ",
  "8579": ".ĠWeĠmayĠ",
  "8580": ".ĠNevertheless,Ġ",
  "8581": "mou",
  "8582": ",”Ġ",
  "8583": "taught\n",
  "8584": "spendĠ",
  "8585": "quicklyĠ",
  "8586": "wasĠthatĠ",
  "8587": "stageĠ",
  "8588": "--areĠ",
  "8589": "resistĠ",
  "8590": "ently\n",
  "8591": ".ĠDr",
  "8592": "flog",
  "8593": "together,Ġ",
  "8594": "bar",
  "8595": "wisdom",
  "8596": "adverseĠ",
  "8597": "believeĠinĠ",
  "8598": "IĠcannotĠ",
  "8599": "Spir",
  "8600": "himself\n",
  "8601": "e.ĠItĠisĠ",
  "8602": "ationsĠof\n",
  "8603": "IĠthinkĠ",
  "8604": "crim",
  "8605": "reflex",
  "8606": "dependsĠ",
  "8607": "immenseĠ",
  "8608": "week",
  "8609": "regardedĠasĠaĠ",
  "8610": "limin",
  "8611": "tendencies",
  "8612": "edĠbyĠanĠ",
  "8613": "alsĠ",
  "8614": "cau",
  "8615": "isĠstillĠ",
  "8616": "riverĠ",
  "8617": "healthyĠandĠ",
  "8618": "rock",
  "8619": "birth",
  "8620": ",Ġin\n",
  "8621": "Be",
  "8622": ".\n\nO",
  "8623": "outcomeĠofĠ",
  "8624": "beginningĠtoĠ",
  "8625": "vulg",
  "8626": "alikeĠ",
  "8627": "enjoyĠ",
  "8628": "isiteĠ",
  "8629": "sĠthisĠ",
  "8630": "unif",
  "8631": "supremeĠ",
  "8632": "doubleĠ",
  "8633": "nationĠ",
  "8634": "notĠinĠ",
  "8635": "dogmaticĠ",
  "8636": "itĠshouldĠ",
  "8637": "primarilyĠ",
  "8638": "those\n",
  "8639": "power,Ġ",
  "8640": "Briti",
  "8641": "British",
  "8642": "followedĠ",
  "8643": ".\nA",
  "8644": "stageĠofĠ",
  "8645": "sideĠofĠtheĠ",
  "8646": "ary,\n",
  "8647": "OldĠ",
  "8648": "teacher\n",
  "8649": "means,Ġ",
  "8650": ".ĠWe\n",
  "8651": "lawĠofĠ",
  "8652": "strongĠandĠ",
  "8653": "healthy,Ġ",
  "8654": "educationĠtoĠ",
  "8655": "civilizedĠ",
  "8656": "mill",
  "8657": "able,ĠandĠ",
  "8658": "careĠofĠ",
  "8659": "farm",
  "8660": "present\n",
  "8661": "carriesĠ",
  "8662": "makesĠitĠ",
  "8663": "guardĠ",
  "8664": ".\n\nC",
  "8665": "fearĠisĠ",
  "8666": ".ĠHowever",
  "8667": "playsĠ",
  "8668": "forms,Ġ",
  "8669": "fearsĠ",
  "8670": "attractiveĠ",
  "8671": "is,Ġhowever,Ġ",
  "8672": "coward",
  "8673": "inĠwhichĠitĠisĠ",
  "8674": "in,Ġ",
  "8675": "andĠthat\n",
  "8676": "tif",
  "8677": "flesh",
  "8678": "asce",
  "8679": "gitim",
  "8680": "difficultyĠinĠ",
  "8681": "unionĠ",
  "8682": "usingĠtheĠ",
  "8683": "definitionĠ",
  "8684": "developsĠ",
  "8685": ".ĠThereĠisĠaĠ",
  "8686": "cryĠ",
  "8687": "whenĠthe\n",
  "8688": "ingly,Ġ",
  "8689": "milli",
  "8690": "phenomenaĠ",
  "8691": "red,Ġ",
  "8692": "manu",
  "8693": "manufact",
  "8694": "curiosity,Ġ",
  "8695": "atĠworkĠ",
  "8696": "inspec",
  "8697": "arouseĠ",
  "8698": "higher",
  "8699": "wantsĠtoĠ",
  "8700": "forĠus",
  "8701": "habitsĠof\n",
  "8702": "comingĠ",
  "8703": "need\n",
  "8704": "fundamental\n",
  "8705": "ulyĠ",
  "8706": "children’sĠ",
  "8707": "recommend",
  "8708": "sort",
  "8709": "safet",
  "8710": "groupĠ",
  "8711": "y,ĠorĠ",
  "8712": "argumentsĠ",
  "8713": "pleaseĠ",
  "8714": "characterĠofĠ",
  "8715": "noĠmatterĠ",
  "8716": "that\nareĠ",
  "8717": "inĠsuchĠaĠ",
  "8718": "ate,ĠandĠ",
  "8719": "childĠwillĠ",
  "8720": "EveryĠ",
  "8721": ",ĠtheyĠwillĠ",
  "8722": ",\naĠ",
  "8723": "momentĠofĠ",
  "8724": "everythingĠthatĠ",
  "8725": "inĠaccordanceĠ",
  "8726": "ly,ĠandĠ",
  "8727": "eĠtoĠaĠ",
  "8728": "internalĠ",
  "8729": "fastĠ",
  "8730": "treatmentĠ",
  "8731": "followsĠthatĠ",
  "8732": "anceĠofĠtheĠ",
  "8733": "tryĠ",
  "8734": "cles",
  "8735": "conquer",
  "8736": "soon",
  "8737": "izeĠ",
  "8738": "incen",
  "8739": "\ntoĠtheĠ",
  "8740": "suchĠas\n",
  "8741": ".\n\nToĠ",
  "8742": "precedingĠ",
  "8743": "freedomĠandĠ",
  "8744": "ed,Ġand\n",
  "8745": "evenĠinĠ",
  "8746": "against\n",
  "8747": "Fre",
  "8748": "thereĠis\n",
  "8749": "headĠ",
  "8750": "animals,Ġ",
  "8751": ",Ġthink",
  "8752": "]\n",
  "8753": "childhood,Ġ",
  "8754": ";ĠthenĠ",
  "8755": "rownĠ",
  "8756": "flo",
  "8757": "straightĠ",
  "8758": "andĠthen\n",
  "8759": "twentyĠ",
  "8760": "awayĠfromĠtheĠ",
  "8761": "ili",
  "8762": "promo",
  "8763": "eningĠ",
  "8764": "disorder",
  "8765": "tempor",
  "8766": "Instinc",
  "8767": ",\nnotĠ",
  "8768": "kindĠof\n",
  "8769": "equal",
  "8770": "connection\n",
  "8771": "isĠthereforeĠ",
  "8772": "ropĠ",
  "8773": "say\n",
  "8774": "subjectĠisĠ",
  "8775": "s,ĠthatĠ",
  "8776": "sĠmustĠbeĠ",
  "8777": "perfectlyĠ",
  "8778": "revolution",
  "8779": "independentlyĠ",
  "8780": ",ĠtheĠmoreĠ",
  "8781": "rightlyĠ",
  "8782": "storyĠofĠ",
  "8783": "hisĠmotherĠ",
  "8784": "load",
  "8785": "fallenĠ",
  "8786": "wit",
  "8787": "historyĠofĠtheĠ",
  "8788": "sĠmayĠbeĠ",
  "8789": "humanĠspirit",
  "8790": "_aĠ",
  "8791": "admitĠ",
  "8792": "merit",
  "8793": "leadingĠ",
  "8794": "onĠofĠ",
  "8795": "andĠthroughĠtheĠ",
  "8796": "dee",
  "8797": "topicĠ",
  "8798": "aspectĠofĠ",
  "8799": "areĠtoĠbeĠ",
  "8800": "allĠourĠ",
  "8801": ";\nandĠtheĠ",
  "8802": "understandĠthatĠ",
  "8803": "givenĠaĠ",
  "8804": "solicit",
  "8805": "auth",
  "8806": "roph",
  "8807": "isĠquiteĠ",
  "8808": "s.ĠAndĠ",
  "8809": "self-sacrific",
  "8810": "selfishnessĠ",
  "8811": "noĠotherĠ",
  "8812": "atĠleast",
  "8813": "aĠlittleĠ",
  "8814": "taken\n",
  "8815": "immediatelyĠ",
  "8816": "terĠtoĠ",
  "8817": "hasĠnotĠbeenĠ",
  "8818": "iouslyĠ",
  "8819": "considerable\n",
  "8820": "quarter",
  "8821": "s.ĠN",
  "8822": "3]Ġ",
  "8823": "yingĠtheĠ",
  "8824": "sanc",
  "8825": "rewardĠ",
  "8826": "confid",
  "8827": "sev",
  "8828": "ThatĠ",
  "8829": "edĠthem",
  "8830": "hadĠtoĠbeĠ",
  "8831": "e\ninĠ",
  "8832": "spontaneous\n",
  "8833": "clam",
  "8834": "grat",
  "8835": "makes\n",
  "8836": "edĠitĠ",
  "8837": "duringĠ",
  "8838": "bareĠ",
  "8839": "rewardsĠandĠpunishment",
  "8840": "isĠneverĠ",
  "8841": "ingĠit",
  "8842": "onĠitsĠ",
  "8843": "getsĠ",
  "8844": "choiceĠ",
  "8845": "consequenceĠ",
  "8846": "rigid",
  "8847": "usesĠ",
  "8848": "lessons,Ġ",
  "8849": "carp",
  "8850": "triesĠtoĠ",
  "8851": "father",
  "8852": "direction,Ġ",
  "8853": "intoĠa\n",
  "8854": "response",
  "8855": "card",
  "8856": "notĠtoĠbeĠ",
  "8857": "ed.ĠForĠ",
  "8858": "arriv",
  "8859": "old\n",
  "8860": "descrip",
  "8861": "mayĠhaveĠ",
  "8862": "definite\n",
  "8863": ".ĠIf\ntheĠ",
  "8864": "inquisitiveĠ",
  "8865": "common\n",
  "8866": "ied,Ġ",
  "8867": "sĠupĠ",
  "8868": "toĠanyĠ",
  "8869": "heatĠ",
  "8870": "goĠtoĠtheĠ",
  "8871": "sheĠhasĠ",
  "8872": "cell",
  "8873": "mentĠandĠ",
  "8874": "staff",
  "8875": "centre",
  "8876": "byĠanĠ",
  "8877": "furth",
  "8878": "implicitĠ",
  "8879": "meta",
  "8880": "complicatedĠ",
  "8881": "Chap",
  "8882": "discipline,Ġ",
  "8883": "danc",
  "8884": "model",
  "8885": "istĠofĠ",
  "8886": "sense-",
  "8887": "asc",
  "8888": "journe",
  "8889": "NewĠ",
  "8890": "somethingĠtoĠ",
  "8891": "besidesĠ",
  "8892": "us,ĠandĠ",
  "8893": "parts,Ġ",
  "8894": "alge",
  "8895": "algebr",
  "8896": "forĠit",
  "8897": "detach",
  "8898": "incomplet",
  "8899": "book,Ġ",
  "8900": "atom",
  "8901": "solutionĠ",
  "8902": "minuteĠ",
  "8903": "progressiveĠ",
  "8904": "perv",
  "8905": "andĠallĠ",
  "8906": "ofĠ_",
  "8907": "yĠareĠ",
  "8908": "itĠisĠanĠ",
  "8909": ".ĠSo\n",
  "8910": "termĠ",
  "8911": "expenseĠ",
  "8912": "selectĠ",
  "8913": "affordĠtoĠ",
  "8914": "functionĠofĠtheĠ",
  "8915": "occupiedĠ",
  "8916": "viveĠ",
  "8917": ".ĠButĠthisĠ",
  "8918": "eĠofĠourĠ",
  "8919": "Cont",
  "8920": "whichĠheĠhasĠ",
  "8921": "isĠnoĠ",
  "8922": "businessĠofĠ",
  "8923": "ed,ĠandĠtheĠ",
  "8924": "ĠĠĠĠ\n\n",
  "8925": "datedĠ",
  "8926": "Creat",
  "8927": "copyright\n",
  "8928": "ownsĠaĠ",
  "8929": "TermsĠofĠ",
  "8930": "TermsĠofĠUseĠ",
  "8931": "Project\nGutenberg™ĠelectronicĠwork",
  "8932": ".ĠProjectĠGutenbergĠ",
  "8933": "isĠaĠregister",
  "8934": "isĠaĠregisteredĠ",
  "8935": "isĠaĠregisteredĠtrademark",
  "8936": "eBook,Ġ",
  "8937": "royaltiesĠ",
  "8938": "licenseĠ",
  "8939": "edis",
  "8940": "commercialĠ",
  "8941": "ĠLIC",
  "8942": "ĠLICEN",
  "8943": "ĠLICENSE",
  "8944": "DISTRIB",
  "8945": "DISTRIBUT",
  "8946": "ProjectĠGutenberg™Ġmis",
  "8947": "ProjectĠGutenberg™ĠmissionĠofĠ",
  "8948": "ProjectĠGutenberg™ĠmissionĠofĠpromot",
  "8949": "ingĠorĠdistribut",
  "8950": "associatedĠinĠanyĠwayĠ",
  "8951": "withĠtheĠphraseĠ“",
  "8952": "withĠtheĠphraseĠ“Project\nGutenberg",
  "8953": "),ĠyouĠ",
  "8954": "onlineĠ",
  "8955": ".\n\nSectionĠ",
  "8956": "copiesĠofĠProjectĠGutenberg™ĠelectronicĠwork",
  "8957": "obtainingĠaĠ",
  "8958": "agreeĠtoĠbeĠ",
  "8959": "byĠtheĠtermsĠofĠthisĠagreement",
  "8960": "person\norĠ",
  "8961": "person\norĠenti",
  "8962": "setĠforthĠinĠparagraphĠ",
  "8963": ".\n\n1.",
  "8964": "youĠcanĠdoĠwithĠ",
  "8965": "ProjectĠGutenberg™ĠelectronicĠworks\n",
  "8966": "paragraphĠ1.",
  "8967": "Ġbelow",
  "8968": "followĠtheĠ",
  "8969": "termsĠofĠthis\n",
  "8970": "termsĠofĠthis\nagreementĠ",
  "8971": "ProjectĠGutenbergĠLiteraryĠArchiveĠFoundationĠ",
  "8972": "PG",
  "8973": "publicĠdomainĠ",
  "8974": "United\nStates",
  "8975": "copyrightĠlawĠ",
  "8976": "copying,Ġ",
  "8977": "ing,Ġperform",
  "8978": "ing,Ġperforming,\n",
  "8979": "ingĠorĠcreatingĠderivativeĠ",
  "8980": "ingĠorĠcreatingĠderivativeĠworksĠ",
  "8981": "allĠrefer",
  "8982": "allĠreferenc",
  "8983": "allĠreferencesĠtoĠ",
  "8984": "sĠinĠcomplianceĠ",
  "8985": "withĠtheĠtermsĠofĠthisĠagreementĠ",
  "8986": "outsideĠtheĠUnitedĠStat",
  "8987": "statusĠofĠ",
  "8988": "activeĠlink",
  "8989": "immediateĠaccessĠ",
  "8990": "ProjectĠGutenberg™ĠworkĠ",
  "8991": "phraseĠ“ProjectĠGutenberg”Ġ",
  "8992": ".ĠIfĠanĠindividualĠProjectĠGutenberg™ĠelectronicĠworkĠ",
  "8993": "paragraphsĠ1.E.1",
  "8994": "paragraphsĠ1.E.1ĠthroughĠ",
  "8995": "paragraphsĠ1.E.1ĠthroughĠ1.E.",
  "8996": "paragraphsĠ1.E.1ĠthroughĠ1.E.7",
  "8997": "obtainĠpermissionĠ",
  "8998": "1.E.8ĠorĠ",
  "8999": "1.E.8ĠorĠ1.E.9",
  "9000": "1.E.8ĠorĠ1.E.9.\n\n1.E.",
  "9001": "permissionĠofĠtheĠ",
  "9002": "fullĠProjectĠGutenberg™\n",
  "9003": ",ĠorĠanyĠ",
  "9004": "sentenceĠ",
  "9005": "icense",
  "9006": "proprietaryĠ",
  "9007": "“Pl",
  "9008": "Van",
  "9009": "Vanill",
  "9010": "VanillaĠ",
  "9011": "VanillaĠAS",
  "9012": "VanillaĠASC",
  "9013": "VanillaĠASCII",
  "9014": "VanillaĠASCII”Ġ",
  "9015": "VanillaĠASCII”ĠorĠotherĠ",
  "9016": "websit",
  "9017": "feeĠorĠ",
  "9018": "ownerĠofĠtheĠ",
  "9019": "ProjectĠGutenberg™Ġtrademark",
  "9020": "Project\nĠĠĠĠĠĠĠĠ",
  "9021": "Project\nĠĠĠĠĠĠĠĠGutenberg",
  "9022": "Project\nĠĠĠĠĠĠĠĠGutenbergĠLiteraryĠArchiveĠFound",
  "9023": ".ĠRoy",
  "9024": ".ĠRoyal",
  "9025": "0Ġday",
  "9026": "SectionĠ4",
  "9027": "InformationĠ",
  "9028": "donationsĠtoĠtheĠProjectĠGutenberg",
  "9029": "LiteraryĠArchiveĠFound",
  "9030": "anyĠmoneyĠ",
  "9031": "anyĠmoneyĠpaidĠ",
  "9032": "0ĠdaysĠofĠ",
  "9033": "physicalĠmedium",
  "9034": "ĠĠĠĠ\nĠĠĠĠ•ĠYouĠ",
  "9035": "edĠtoĠyouĠ",
  "9036": "withinĠ9",
  "9037": "Project\nGutenberg™ĠelectronicĠworkĠ",
  "9038": "setĠforthĠinĠthisĠ",
  "9039": "setĠforthĠinĠthisĠagreement",
  "9040": "inĠwriting\n",
  "9041": "volunteersĠandĠ",
  "9042": "employe",
  "9043": "read\n",
  "9044": "Def",
  "9045": "comput",
  "9046": "computerĠ",
  "9047": ".ĠLIM",
  "9048": ".ĠLIMITEDĠ",
  "9049": "WARRANTY",
  "9050": "DAMAGESĠ",
  "9051": "-Ġ",
  "9052": "ceptĠforĠtheĠ",
  "9053": ",ĠtheĠProject\nGutenberg",
  "9054": ",ĠtheĠProject\nGutenbergĠLiteraryĠArchiveĠFound",
  "9055": "costsĠandĠ",
  "9056": "costsĠandĠexpens",
  "9057": "fees",
  "9058": ".ĠYOUĠ",
  "9059": ".ĠYOUĠAGRE",
  "9060": ".ĠYOUĠAGREEĠTH",
  "9061": ".ĠYOUĠAGREEĠTHATĠ",
  "9062": "SĠFORĠ",
  "9063": "T\nLI",
  "9064": "ABILITY",
  "9065": "BREA",
  "9066": "BREACH",
  "9067": "BREACHĠOFĠ",
  "9068": "ND",
  "9069": "AL,Ġ",
  "9070": "IRECT,Ġ",
  "9071": "EĠOFĠ",
  "9072": "lieu",
  "9073": "lieuĠofĠaĠ",
  "9074": "lieuĠofĠaĠre",
  "9075": "lieuĠofĠaĠrefund",
  "9076": "workĠisĠ",
  "9077": "WARRANTI",
  "9078": "WARRANTIES",
  "9079": "UTĠ",
  "9080": "limitationĠ",
  "9081": "volunteersĠ",
  "9082": "directlyĠorĠ",
  "9083": ".ĠInformationĠaboutĠtheĠ",
  "9084": "\n\nProjectĠGutenberg™Ġ",
  "9085": "readableĠ",
  "9086": "byĠtheĠwid",
  "9087": "compu",
  "9088": "computer",
  "9089": "donations\n",
  "9090": "pageĠatĠwww.gutenberg.org",
  "9091": "taxĠex",
  "9092": "Servic",
  "9093": "federalĠ",
  "9094": "6-",
  "9095": "carryĠoutĠ",
  "9096": "equipmentĠ",
  "9097": "doĠnotĠsolic",
  "9098": "doĠnotĠsolicitĠ",
  "9099": "www.gutenberg.org/donate.\n\n",
  "9100": "couldĠbe\n",
  "9101": "ProjectĠGutenberg™ĠeBook",
  "9102": "webs",
  "9103": "websiteĠ",
  "9104": "includesĠ",
  "9105": "newĠeBook",
  "9106": ".\nĠĠĠĠĠĠ",
  "9107": "IMPRES",
  "9108": "IMPRESSION",
  "9109": "WH",
  "9110": "ĠĠĠĠĠĠĠĠĠĠĠ",
  "9111": "deliver",
  "9112": "attractiv",
  "9113": "formĠandĠ",
  "9114": "connectĠ",
  "9115": "educational\n",
  "9116": "changesĠ",
  "9117": "spinn",
  "9118": "leng",
  "9119": "acquaintanceĠwithĠ",
  "9120": "thatĠthe\n",
  "9121": "studies",
  "9122": "alongĠ",
  "9123": "e,ĠofĠ",
  "9124": "spiritĠandĠ",
  "9125": "quan",
  "9126": "quantit",
  "9127": "infinitelyĠ",
  "9128": "materialsĠ",
  "9129": "pointĠof\n",
  "9130": "determineĠ",
  "9131": "systematicallyĠ",
  "9132": "guard",
  "9133": "liqu",
  "9134": "termsĠofĠ",
  "9135": "guar",
  "9136": "comparativelyĠ",
  "9137": "becomesĠtheĠ",
  "9138": "weĠhaveĠtheĠ",
  "9139": "holdsĠ",
  "9140": "objectĠisĠ",
  "9141": "logicallyĠ",
  "9142": "attainĠ",
  "9143": "transi",
  "9144": "plann",
  "9145": "elsĠ",
  "9146": "Discipl",
  "9147": "kindergar",
  "9148": "risingĠ",
  "9149": "diagr",
  "9150": "representsĠtheĠ",
  "9151": "relevantĠ",
  "9152": "|ĠĠĠĠĠĠĠĠĠĠĠĠ|\n",
  "9153": "contrast",
  "9154": "directionĠofĠ",
  "9155": "growthĠofĠthe\n",
  "9156": "typesĠofĠ",
  "9157": "instrumentĠofĠ",
  "9158": "asĠaĠwholeĠ",
  "9159": "noteĠ",
  "9160": "exercise",
  "9161": "obedience",
  "9162": "sunsh",
  "9163": "ed,--",
  "9164": "for,Ġ",
  "9165": "\"M",
  "9166": "loftyĠ",
  "9167": "Super",
  "9168": "supernatural",
  "9169": "Christend",
  "9170": "answerĠtoĠthisĠ",
  "9171": "recogniseĠ",
  "9172": "escapeĠfromĠ",
  "9173": "ismĠofĠ",
  "9174": "quasi",
  "9175": "quasi-",
  "9176": "commandment",
  "9177": "zealĠ",
  "9178": "isĠtheĠonlyĠ",
  "9179": "beĠableĠtoĠ",
  "9180": "obedienceĠtoĠtheĠ",
  "9181": "fallac",
  "9182": "seeminglyĠ",
  "9183": ".\n\nĠĠĠĠĠĠĠ*ĠĠĠĠĠĠĠ*ĠĠĠĠĠĠĠ*ĠĠĠĠĠĠĠ*ĠĠĠĠĠĠĠ*",
  "9184": "wordĠ\"",
  "9185": "mechanicalĠobedienceĠ",
  "9186": "faithĠ",
  "9187": "ed\"Ġ",
  "9188": "now\n",
  "9189": "stro",
  "9190": "recourseĠ",
  "9191": "antithes",
  "9192": "\"ĠandĠ\"",
  "9193": "whichĠhisĠ",
  "9194": "lookedĠuponĠ",
  "9195": "soul-",
  "9196": "inĠfron",
  "9197": "teacherĠtoĠ",
  "9198": "reflection,Ġ",
  "9199": "bothĠtheĠ",
  "9200": "al_Ġ",
  "9201": "edĠbyĠhisĠ",
  "9202": "isĠnot\n",
  "9203": "himselfĠtheĠ",
  "9204": "balanc",
  "9205": "\"mass",
  "9206": "asĠ_",
  "9207": "perceptiveĠfacultiesĠ",
  "9208": "trueĠself",
  "9209": "reciprocalĠ",
  "9210": "DiocesanĠIn",
  "9211": "transformedĠ",
  "9212": "whichĠth",
  "9213": "Standard",
  "9214": "consp",
  "9215": "compositionĠ",
  "9216": "colourĠ",
  "9217": "notion",
  "9218": "senses",
  "9219": "mindĠthatĠ",
  "9220": "conject",
  "9221": "encoun",
  "9222": "Utopian",
  "9223": "scram",
  "9224": "serveĠtoĠ",
  "9225": "aggrand",
  "9226": "principle",
  "9227": "intu",
  "9228": "anticip",
  "9229": "entialĠ",
  "9230": "casesĠofĠ",
  "9231": "linguisticĠ",
  "9232": "calledĠtheĠ",
  "9233": "Think",
  "9234": "Refl",
  "9235": "notingĠ",
  "9236": ".\n\n\nSec.Ġ3",
  "9237": "robor",
  "9238": "suggestions",
  "9239": "_i.e._Ġ",
  "9240": "_)\n",
  "9241": "formingĠ",
  "9242": "contex",
  "9243": "theoretic",
  "9244": "reasoning",
  "9245": "aneousĠ",
  "9246": "suscep",
  "9247": "transfer",
  "9248": "deductiveĠ",
  "9249": "analyticĠ",
  "9250": "byĠourĠ",
  "9251": "vocabul",
  "9252": "observationĠisĠ",
  "9253": ",Ġ13",
  "9254": ",Ġ15",
  "9255": "0\n\nĠĠ",
  "9256": "2\n\nĠĠ",
  "9257": ",Ġ12",
  "9258": "midstĠ",
  "9259": "opar",
  "9260": "reality\n",
  "9261": ".ĠTranslatedĠbyĠ",
  "9262": "andĠR",
  "9263": "LIF",
  "9264": "ORK",
  "9265": "Ma",
  "9266": "\n\nĠĠĠĠ",
  "9267": "DER",
  "9268": "\n\nĠĠĠĠĠĠ",
  "9269": "EAR",
  "9270": "87",
  "9271": "VII",
  "9272": "NES",
  "9273": "ĠĠĠĠĠĠĠĠĠĠĠĠĠĠĠĠĠĠĠĠĠĠĠĠĠĠĠ",
  "9274": "UNIVER",
  "9275": "UNIVERSI",
  "9276": "UNIVERSITY",
  "9277": "odd",
  "9278": "parents,Ġ",
  "9279": "energe",
  "9280": "in\nthisĠ",
  "9281": "oneĠmayĠ",
  "9282": "alone",
  "9283": "myĠownĠ",
  "9284": "showĠthatĠ",
  "9285": "characterĠandĠ",
  "9286": "menĠandĠwomenĠ",
  "9287": "inĠview",
  "9288": "awareĠofĠ",
  "9289": "over\n",
  "9290": "ninete",
  "9291": "ledĠtoĠ",
  "9292": "aristocr",
  "9293": "excellentĠ",
  "9294": "serious\n",
  "9295": "privil",
  "9296": "privileg",
  "9297": "profit",
  "9298": "although",
  "9299": "principleĠisĠ",
  "9300": ".ĠItĠwouldĠbeĠ",
  "9301": "hundredĠ",
  "9302": "domes",
  "9303": "adameĠ",
  "9304": "ed\nwithĠ",
  "9305": "The",
  "9306": "Class",
  "9307": "controvers",
  "9308": "”\n",
  "9309": "distor",
  "9310": "asĠthatĠ",
  "9311": "cross",
  "9312": "oneĠofĠtheĠmostĠ",
  "9313": "worthyĠ",
  "9314": "forĠsomeĠ",
  "9315": "partĠinĠ",
  "9316": ",ĠtheĠoneĠ",
  "9317": "what\nisĠ",
  "9318": "reachedĠ",
  "9319": "goodĠorĠ",
  "9320": "needsĠandĠ",
  "9321": "desiresĠ",
  "9322": "peopleĠareĠ",
  "9323": "eighteen",
  "9324": "accomplishment",
  "9325": ";ĠtheirĠ",
  "9326": "real,Ġ",
  "9327": ".ĠNoĠoneĠ",
  "9328": "we,Ġ",
  "9329": "inĠthoseĠ",
  "9330": "old-fashionedĠ",
  "9331": "Shakes",
  "9332": "asĠtheyĠareĠ",
  "9333": "conserv",
  "9334": "produced",
  "9335": "medic",
  "9336": "memoryĠ",
  "9337": "evenĠifĠ",
  "9338": "firstĠtimeĠ",
  "9339": "happiness",
  "9340": "isĠofĠ",
  "9341": "humanĠlifeĠ",
  "9342": "pea",
  "9343": "renderĠ",
  "9344": "s\ninĠ",
  "9345": ",ĠcanĠ",
  "9346": ".ĠThisĠisĠaĠ",
  "9347": "whereverĠ",
  "9348": "æstheticĠ",
  "9349": ".ĠPerhap",
  "9350": "languageĠisĠ",
  "9351": "vehic",
  "9352": "depl",
  "9353": "moreĠthan",
  "9354": "soĠthatĠtheyĠ",
  "9355": "areĠbeingĠ",
  "9356": "convention",
  "9357": "wond",
  "9358": "Sab",
  "9359": "Under",
  "9360": "cool",
  "9361": ".\n\nSoĠ",
  "9362": "teaching,Ġ",
  "9363": "adem",
  "9364": "have,Ġ",
  "9365": "dislik",
  "9366": "solit",
  "9367": "ily",
  "9368": "yĠwasĠ",
  "9369": "told\n",
  "9370": "fatherĠ",
  "9371": "oneĠofĠthemĠ",
  "9372": "foot",
  "9373": "e.ĠHeĠ",
  "9374": "ProfessorĠ",
  "9375": "terrorĠ",
  "9376": "ofĠbeingĠ",
  "9377": "methodsĠareĠ",
  "9378": "herĠownĠ",
  "9379": "thereĠwasĠ",
  "9380": "eer",
  "9381": "hadĠnoĠ",
  "9382": "operation",
  "9383": "comeĠtoĠbeĠ",
  "9384": "but\ntheĠ",
  "9385": "findingĠ",
  "9386": "wasĠthe\n",
  "9387": "-classĠ",
  "9388": "flogg",
  "9389": "ĠthoseĠofĠ",
  "9390": "nobleĠ",
  "9391": "knowledgeĠofĠGod",
  "9392": ",ĠnotĠtheĠ",
  "9393": "Jes",
  "9394": "oodĠofĠ",
  "9395": ";ĠbutĠitĠisĠ",
  "9396": "cruelty",
  "9397": "erc",
  "9398": "appea",
  "9399": "morb",
  "9400": "atĠfirst",
  "9401": "constituteĠtheĠ",
  "9402": "ictingĠ",
  "9403": "behaveĠ",
  "9404": "substitu",
  "9405": "prelimin",
  "9406": "thatĠofĠtheĠ",
  "9407": "directionsĠ",
  "9408": "easy",
  "9409": "controllingĠ",
  "9410": "derĠ",
  "9411": "justifyĠ",
  "9412": "inadequateĠ",
  "9413": "psy",
  "9414": "aĠchildĠisĠ",
  "9415": "developedĠ",
  "9416": "habits",
  "9417": "attention,Ġ",
  "9418": ".ĠSimil",
  "9419": ".ĠAccord",
  "9420": "detailedĠ",
  "9421": "courage,Ġ",
  "9422": "Char",
  "9423": "sĠhaveĠbeenĠ",
  "9424": "variousĠway",
  "9425": "momentsĠ",
  "9426": "fightĠ",
  "9427": "were,Ġ",
  "9428": "poem",
  "9429": "itsĠown",
  "9430": "pugn",
  "9431": "haveĠbecomeĠ",
  "9432": "whichĠthisĠ",
  "9433": "squ",
  "9434": "in\naĠ",
  "9435": "weĠareĠtoĠ",
  "9436": "o-",
  "9437": "andĠtherefore\n",
  "9438": "tifi",
  "9439": ".ĠKnowledg",
  "9440": "madeĠtheĠ",
  "9441": "CatholicĠ",
  "9442": "Vol",
  "9443": "productĠofĠ",
  "9444": "forĠaĠlongĠ",
  "9445": "ends",
  "9446": "obeyĠ",
  "9447": "perhapsĠtheĠ",
  "9448": "incapableĠofĠ",
  "9449": "wealth",
  "9450": "diffus",
  "9451": "rope",
  "9452": "loyal",
  "9453": "attitudeĠofĠtheĠ",
  "9454": "incul",
  "9455": "esĠtoĠtheĠ",
  "9456": "youngĠpeopleĠ",
  "9457": "goodĠthing",
  "9458": "menĠofĠ",
  "9459": "watchĠ",
  "9460": "firmlyĠ",
  "9461": "andĠintellectualĠ",
  "9462": "presumablyĠ",
  "9463": "nothing\n",
  "9464": "boredom",
  "9465": "wouldĠhaveĠbeenĠ",
  "9466": "s.ĠInĠ",
  "9467": "spit",
  "9468": "--hasĠ",
  "9469": "ofĠthing",
  "9470": "nois",
  "9471": "incal",
  "9472": "incalcul",
  "9473": "later",
  "9474": "radicalĠ",
  "9475": "doĠtheĠ",
  "9476": "ing,ĠorĠ",
  "9477": "breath",
  "9478": "cultivatedĠ",
  "9479": "outlookĠonĠ",
  "9480": "thought\n",
  "9481": "perver",
  "9482": "hypocris",
  "9483": "leader",
  "9484": "univer",
  "9485": "renounc",
  "9486": ".ĠForĠthisĠ",
  "9487": "happenĠ",
  "9488": "fullestĠ",
  "9489": "ationĠareĠ",
  "9490": "able.ĠTheĠ",
  "9491": "aĠpersonĠ",
  "9492": "admire",
  "9493": "sensiblyĠ",
  "9494": "atis",
  "9495": "sonĠ",
  "9496": "stir",
  "9497": "makingĠtheĠ",
  "9498": "umer",
  "9499": "arbitrarilyĠ",
  "9500": ".ĠSoĠlongĠ",
  "9501": "asĠthisĠ",
  "9502": "otherĠpeople",
  "9503": "pieceĠofĠ",
  "9504": "interestedĠ",
  "9505": "inĠmyĠ",
  "9506": "curiosity",
  "9507": "onĠthatĠ",
  "9508": "carryingĠ",
  "9509": "unknown",
  "9510": ".ĠBut",
  "9511": "likeĠtoĠ",
  "9512": ".ĠThatĠisĠ",
  "9513": "why",
  "9514": "decisionĠ",
  "9515": "weĠthink",
  "9516": "inĠgeneralĠ",
  "9517": "atĠa\n",
  "9518": ",ĠandĠweĠ",
  "9519": "claimĠ",
  "9520": "weĠhave\n",
  "9521": "anythingĠthatĠ",
  "9522": "pover",
  "9523": "adoptĠ",
  "9524": "Mrs",
  "9525": "pedĠ",
  "9526": "encourageĠ",
  "9527": "hus",
  "9528": "keyĠ",
  "9529": "disturb",
  "9530": "occupation,Ġ",
  "9531": "homeĠ",
  "9532": "forĠtheĠchild",
  "9533": "diges",
  "9534": ".ĠIf,Ġ",
  "9535": "tolerableĠ",
  "9536": "placesĠ",
  "9537": "acquis",
  "9538": "which,ĠinĠ",
  "9539": "inj",
  "9540": "assumeĠthatĠ",
  "9541": "necessary,Ġ",
  "9542": "ruleĠ",
  "9543": "efforts,Ġ",
  "9544": "izingĠ",
  "9545": "itĠcanĠ",
  "9546": "table,Ġ",
  "9547": "later,Ġ",
  "9548": "allĠthisĠ",
  "9549": "trium",
  "9550": "triumph",
  "9551": "expressionĠofĠ",
  "9552": "amusement",
  "9553": "fing",
  "9554": "ceaseĠtoĠbeĠ",
  "9555": "dre",
  "9556": "OnĠtheĠ",
  "9557": "monthsĠ",
  "9558": "raiseĠ",
  "9559": "performĠ",
  "9560": "postul",
  "9561": "entirel",
  "9562": "eĠwithĠtheĠ",
  "9563": "your\n",
  "9564": "inĠtheĠfirstĠ",
  "9565": "harmfulĠ",
  "9566": "proposeĠtoĠ",
  "9567": "ously,Ġ",
  "9568": "ages",
  "9569": "wantĠtoĠ",
  "9570": "childrenĠwhoĠ",
  "9571": "gives\n",
  "9572": "showedĠ",
  "9573": "interpretationĠofĠtheĠ",
  "9574": ".ĠSheĠ",
  "9575": "Psycholog",
  "9576": "perception",
  "9577": "reject",
  "9578": "body,ĠandĠ",
  "9579": "butĠnotĠ",
  "9580": "\nbyĠ",
  "9581": "moveĠtheĠ",
  "9582": "familiarityĠ",
  "9583": "ste",
  "9584": "elementĠofĠ",
  "9585": "esĠbyĠ",
  "9586": "weatherĠ",
  "9587": "securedĠ",
  "9588": "asticĠ",
  "9589": "educated",
  "9590": "lateĠ",
  "9591": "learningĠtoĠ",
  "9592": "pedan",
  "9593": "allowedĠ",
  "9594": "makingĠaĠ",
  "9595": "hopeĠofĠ",
  "9596": "ed\nandĠ",
  "9597": "worseĠ",
  "9598": "moreĠimportantĠ",
  "9599": "alongĠtheĠ",
  "9600": "justif",
  "9601": "tellingĠ",
  "9602": "emn",
  "9603": "ifĠitĠwereĠ",
  "9604": "youĠcanĠ",
  "9605": "last\n",
  "9606": "ating",
  "9607": "partsĠofĠ",
  "9608": ",ĠifĠyouĠ",
  "9609": ".ĠIfĠyou\n",
  "9610": "slav",
  "9611": "wideĠ",
  "9612": "games",
  "9613": "utterĠ",
  "9614": "memberĠ",
  "9615": "esĠto\n",
  "9616": ".ĠJustĠ",
  "9617": "significance",
  "9618": "make-",
  "9619": "Gi",
  "9620": "inĠproportionĠ",
  "9621": "creditĠ",
  "9622": "takenĠinĠ",
  "9623": "king",
  "9624": "toldĠtoĠ",
  "9625": "nothingĠbutĠ",
  "9626": "IĠwillĠ",
  "9627": "orĠanyĠ",
  "9628": "atĠanĠ",
  "9629": "spectator",
  "9630": "competitiveĠ",
  "9631": "hasĠmadeĠ",
  "9632": "manĠandĠ",
  "9633": "considered\n",
  "9634": "Ġthere",
  "9635": "improvementĠ",
  "9636": "hand,Ġ",
  "9637": "influenceĠofĠtheĠ",
  "9638": "senseĠof\n",
  "9639": "to\nre",
  "9640": "weĠareĠnotĠ",
  "9641": "inĠdoingĠ",
  "9642": "perm",
  "9643": "erĠtoĠtheĠ",
  "9644": "heightĠ",
  "9645": "createdĠ",
  "9646": "original",
  "9647": "it\nwasĠ",
  "9648": "conceivedĠinĠ",
  "9649": "defectiv",
  "9650": "higher\n",
  "9651": "cannotĠbe\n",
  "9652": ".ĠOfĠcourse,Ġ",
  "9653": "ed,ĠthatĠ",
  "9654": "circumstancesĠ",
  "9655": "alwaysĠbeĠ",
  "9656": "handlingĠ",
  "9657": "not\nbeĠ",
  "9658": "engagedĠinĠ",
  "9659": "’tĠ",
  "9660": "egg",
  "9661": "sick",
  "9662": "over,Ġ",
  "9663": "itĠbyĠ",
[...]
